#include "magic_wand_model_data.h"


// We need to keep the data array aligned on some architectures.

#ifdef __has_attribute

#define HAVE_ATTRIBUTE(x) __has_attribute(x)

#else

#define HAVE_ATTRIBUTE(x) 0

#endif

#if HAVE_ATTRIBUTE(aligned) || (defined(__GNUC__) && !defined(__clang__))

#define DATA_ALIGN_ATTRIBUTE __attribute__((aligned(4)))

#else

#define DATA_ALIGN_ATTRIBUTE

#endif


const unsigned char g_magic_wand_model_data[] DATA_ALIGN_ATTRIBUTE = {
 0x1c, 0x00, 0x00, 0x00, 0x54, 0x46, 0x4c, 0x33, 0x14, 0x00, 0x20, 0x00,
  0x04, 0x00, 0x08, 0x00, 0x0c, 0x00, 0x10, 0x00, 0x14, 0x00, 0x00, 0x00,
  0x18, 0x00, 0x1c, 0x00, 0x14, 0x00, 0x00, 0x00, 0x03, 0x00, 0x00, 0x00,
  0x18, 0x00, 0x00, 0x00, 0x2c, 0x00, 0x00, 0x00, 0xd8, 0x00, 0x00, 0x00,
  0x2c, 0x00, 0x00, 0x00, 0x80, 0x00, 0x00, 0x00, 0x78, 0x00, 0x00, 0x00,
  0x05, 0x00, 0x00, 0x00, 0x28, 0x07, 0x00, 0x00, 0x44, 0x06, 0x00, 0x00,
  0xbc, 0x03, 0x00, 0x00, 0xf8, 0x02, 0x00, 0x00, 0xac, 0x01, 0x00, 0x00,
  0x01, 0x00, 0x00, 0x00, 0xd0, 0x00, 0x00, 0x00, 0x14, 0x00, 0x00, 0x00,
  0x98, 0x32, 0x00, 0x00, 0x94, 0x32, 0x00, 0x00, 0x8c, 0x31, 0x00, 0x00,
  0xd8, 0x30, 0x00, 0x00, 0x30, 0x30, 0x00, 0x00, 0xbc, 0x2f, 0x00, 0x00,
  0x50, 0x2f, 0x00, 0x00, 0x00, 0x13, 0x00, 0x00, 0xec, 0x11, 0x00, 0x00,
  0x10, 0x10, 0x00, 0x00, 0xb4, 0x07, 0x00, 0x00, 0x6c, 0x32, 0x00, 0x00,
  0x68, 0x32, 0x00, 0x00, 0x64, 0x32, 0x00, 0x00, 0x60, 0x32, 0x00, 0x00,
  0x5c, 0x32, 0x00, 0x00, 0x58, 0x32, 0x00, 0x00, 0x54, 0x32, 0x00, 0x00,
  0x50, 0x32, 0x00, 0x00, 0x3c, 0x00, 0x00, 0x00, 0x00, 0x00, 0x00, 0x00,
  0x01, 0x00, 0x00, 0x00, 0x0c, 0x00, 0x00, 0x00, 0x08, 0x00, 0x0c, 0x00,
  0x04, 0x00, 0x08, 0x00, 0x08, 0x00, 0x00, 0x00, 0x08, 0x00, 0x00, 0x00,
  0x13, 0x00, 0x00, 0x00, 0x13, 0x00, 0x00, 0x00, 0x6d, 0x69, 0x6e, 0x5f,
  0x72, 0x75, 0x6e, 0x74, 0x69, 0x6d, 0x65, 0x5f, 0x76, 0x65, 0x72, 0x73,
  0x69, 0x6f, 0x6e, 0x00, 0xfa, 0xce, 0xff, 0xff, 0x04, 0x00, 0x00, 0x00,
  0x10, 0x00, 0x00, 0x00, 0x31, 0x2e, 0x35, 0x2e, 0x30, 0x00, 0x00, 0x00,
  0x00, 0x00, 0x00, 0x00, 0x00, 0x00, 0x00, 0x00, 0x0f, 0x00, 0x00, 0x00,
  0x4d, 0x4c, 0x49, 0x52, 0x20, 0x43, 0x6f, 0x6e, 0x76, 0x65, 0x72, 0x74,
  0x65, 0x64, 0x2e, 0x00, 0x00, 0x00, 0x0e, 0x00, 0x18, 0x00, 0x04, 0x00,
  0x08, 0x00, 0x0c, 0x00, 0x10, 0x00, 0x14, 0x00, 0x0e, 0x00, 0x00, 0x00,
  0x14, 0x00, 0x00, 0x00, 0x5c, 0x00, 0x00, 0x00, 0x60, 0x00, 0x00, 0x00,
  0x64, 0x00, 0x00, 0x00, 0x84, 0x00, 0x00, 0x00, 0x12, 0x00, 0x00, 0x00,
  0x58, 0x31, 0x00, 0x00, 0xe8, 0x30, 0x00, 0x00, 0x44, 0x30, 0x00, 0x00,
  0x9c, 0x2f, 0x00, 0x00, 0xf4, 0x2e, 0x00, 0x00, 0x94, 0x2e, 0x00, 0x00,
  0x2c, 0x2e, 0x00, 0x00, 0xd8, 0x11,0x00, 0x00, 0xbc, 0x10, 0x00, 0x00,
  0xe0, 0x0e, 0x00, 0x00, 0x0c, 0x06, 0x00, 0x00, 0x28, 0x05, 0x00, 0x00,
  0xe8, 0x03, 0x00, 0x00, 0x3c, 0x03, 0x00, 0x00, 0x98, 0x02, 0x00, 0x00,
  0xd4, 0x01, 0x00, 0x00, 0x10, 0x01, 0x00, 0x00, 0x84, 0x00, 0x00, 0x00,
  0x01, 0x00, 0x00, 0x00, 0x00, 0x00, 0x00, 0x00, 0x01, 0x00, 0x00, 0x00,
  0x11, 0x00, 0x00, 0x00, 0x08, 0x00, 0x00, 0x00, 0x74, 0x05, 0x00, 0x00,
  0x94, 0x04, 0x00, 0x00, 0x78, 0x03, 0x00, 0x00, 0xbc, 0x02, 0x00, 0x00,
  0x30, 0x02, 0x00, 0x00, 0x50, 0x01, 0x00, 0x00, 0xa8, 0x00, 0x00, 0x00,
  0x10, 0x00, 0x00, 0x00, 0x04, 0x00, 0x00, 0x00, 0x6d, 0x61, 0x69, 0x6e,
  0x00, 0x00, 0x00, 0x00, 0x7a, 0xff, 0xff, 0xff, 0x00, 0x00, 0x00, 0x09,
  0x04, 0x00, 0x00, 0x00, 0x1c, 0x00, 0x00, 0x00, 0x10, 0x00, 0x00, 0x00,
  0x04, 0x00, 0x00, 0x00, 0xf6, 0xcf, 0xff, 0xff, 0x00, 0x00, 0x80, 0x3f,
  0x01, 0x00, 0x00, 0x00, 0x11, 0x00, 0x00, 0x00, 0x01, 0x00, 0x00, 0x00,
  0x10, 0x00, 0x00, 0x00, 0xa0, 0xfa, 0xff, 0xff, 0x19, 0x00, 0x00, 0x00,
  0x00, 0x00, 0x00, 0x19, 0x01, 0x00, 0x00, 0x00, 0x84, 0xcf, 0xff, 0xff,
  0x14, 0x00, 0x00, 0x00, 0x12, 0x00, 0x00, 0x00, 0x18, 0x00, 0x00, 0x00,
  0x30, 0x00, 0x00, 0x00, 0x20, 0x00, 0x00, 0x00, 0x02, 0x00, 0x00, 0x00,
  0x01, 0x00, 0x00, 0x00, 0x03, 0x00, 0x00, 0x00, 0x08, 0x00, 0x00, 0x00,
  0x49, 0x64, 0x65, 0x6e, 0x74, 0x69, 0x74, 0x79, 0x00, 0x00, 0x00, 0x00,
  0x02, 0x00, 0x00, 0x00, 0xff, 0xff, 0xff, 0xff, 0x03, 0x00, 0x00, 0x00,
  0x68, 0xd0, 0xff, 0xff, 0x00, 0x00, 0x0e, 0x00, 0x18, 0x00, 0x08, 0x00,
  0x0c, 0x00, 0x10, 0x00, 0x07, 0x00, 0x14, 0x00, 0x0e, 0x00, 0x00, 0x00,
  0x00, 0x00, 0x00, 0x08, 0x03, 0x00, 0x00, 0x00, 0x18, 0x00, 0x00, 0x00,
  0x0c, 0x00, 0x00, 0x00, 0x04, 0x00, 0x00, 0x00, 0x84, 0xcf, 0xff, 0xff,
  0x01, 0x00, 0x00, 0x00, 0x10, 0x00, 0x00, 0x00, 0x03, 0x00, 0x00, 0x00,
  0x0f, 0x00, 0x00, 0x00, 0x07, 0x00, 0x00, 0x00, 0x04, 0x00, 0x00, 0x00,
  0x0c, 0xd0, 0xff, 0xff, 0x14, 0x00, 0x00, 0x00, 0x11, 0x00, 0x00, 0x00,
  0x18, 0x00, 0x00, 0x00, 0x5c, 0x00, 0x00, 0x00, 0x4c, 0x00, 0x00, 0x00,
  0x02, 0x00, 0x00, 0x00, 0x01, 0x00, 0x00, 0x00, 0x03, 0x00, 0x00, 0x00,
  0x34, 0x00, 0x00, 0x00, 0x73, 0x65, 0x71, 0x75, 0x65, 0x6e, 0x74, 0x69,
  0x61, 0x6c, 0x2f, 0x64, 0x65, 0x6e, 0x73, 0x65, 0x5f, 0x31, 0x2f, 0x4d,
  0x61, 0x74, 0x4d, 0x75, 0x6c, 0x3b, 0x73, 0x65, 0x71, 0x75, 0x65, 0x6e,
  0x74, 0x69, 0x61, 0x6c, 0x2f, 0x64, 0x65, 0x6e, 0x73, 0x65, 0x5f, 0x31,
  0x2f, 0x42, 0x69, 0x61, 0x73, 0x41, 0x64, 0x64, 0x00, 0x00, 0x00, 0x00,
  0x02, 0x00, 0x00, 0x00, 0xff, 0xff, 0xff, 0xff, 0x03, 0x00, 0x00, 0x00,
  0x0c, 0xd0, 0xff, 0xff, 0xda, 0xfc, 0xff, 0xff, 0x00, 0x00, 0x00, 0x08,
  0x03, 0x00, 0x00, 0x00, 0x24, 0x00, 0x00, 0x00, 0x18, 0x00, 0x00, 0x00,
  0x0c, 0x00, 0x00, 0x00, 0x00, 0x00, 0x06, 0x00, 0x08, 0x00, 0x07, 0x00,
  0x06, 0x00, 0x00, 0x00, 0x00, 0x00, 0x00, 0x01, 0x01, 0x00, 0x00, 0x00,
  0x0f, 0x00, 0x00, 0x00, 0x03, 0x00, 0x00, 0x00, 0x0e, 0x00, 0x00, 0x00,
  0x06, 0x00, 0x00, 0x00, 0x03, 0x00, 0x00, 0x00, 0xe8, 0xfb, 0xff, 0xff,
  0x09, 0x00, 0x00, 0x00, 0x00, 0x00, 0x00, 0x09, 0x01, 0x00, 0x00, 0x00,
  0xcc, 0xd0, 0xff, 0xff, 0x14, 0x00, 0x00, 0x00, 0x10, 0x00, 0x00, 0x00,
  0x18, 0x00, 0x00, 0x00, 0x6c, 0x00, 0x00, 0x00, 0x5c, 0x00, 0x00, 0x00,
  0x02, 0x00, 0x00, 0x00, 0x01, 0x00, 0x00, 0x00, 0x10, 0x00, 0x00, 0x00,
  0x46, 0x00, 0x00, 0x00, 0x73, 0x65, 0x71, 0x75, 0x65, 0x6e, 0x74, 0x69,
  0x61, 0x6c, 0x2f, 0x64, 0x65, 0x6e, 0x73, 0x65, 0x2f, 0x4d, 0x61, 0x74,
  0x4d, 0x75, 0x6c, 0x3b, 0x73, 0x65, 0x71, 0x75, 0x65, 0x6e, 0x74, 0x69,
  0x61, 0x6c, 0x2f, 0x64, 0x65, 0x6e, 0x73, 0x65, 0x2f, 0x52, 0x65, 0x6c,
  0x75, 0x3b, 0x73, 0x65, 0x71, 0x75, 0x65, 0x6e, 0x74, 0x69, 0x61, 0x6c,
  0x2f, 0x64, 0x65, 0x6e, 0x73, 0x65, 0x2f, 0x42, 0x69, 0x61, 0x73, 0x41,
  0x64, 0x64, 0x00, 0x00, 0x02, 0x00, 0x00, 0x00, 0xff, 0xff, 0xff, 0xff,
  0x10, 0x00, 0x00, 0x00, 0xec, 0xd1, 0xff, 0xff, 0x00, 0x00, 0x0a, 0x00,
  0x10, 0x00, 0x04, 0x00, 0x08, 0x00, 0x0c, 0x00, 0x0a, 0x00, 0x00, 0x00,
  0x02, 0x00, 0x00, 0x00, 0x10, 0x00, 0x00, 0x00, 0x04, 0x00, 0x00, 0x00,
  0x01, 0x00, 0x00, 0x00, 0x0e, 0x00, 0x00, 0x00, 0x02, 0x00, 0x00, 0x00,
  0x0d, 0x00, 0x00, 0x00, 0x05, 0x00, 0x00, 0x00, 0xa8, 0xfc, 0xff, 0xff,
  0x16, 0x00, 0x00, 0x00, 0x00, 0x00, 0x00, 0x16, 0x01, 0x00, 0x00, 0x00,
  0x8c, 0xd1, 0xff, 0xff, 0x14, 0x00, 0x00, 0x00, 0x0f, 0x00, 0x00, 0x00,
  0x18, 0x00, 0x00, 0x00, 0x40, 0x00, 0x00, 0x00, 0x30, 0x00, 0x00, 0x00,
  0x02, 0x00, 0x00, 0x00, 0x01, 0x00, 0x00, 0x00, 0x70, 0x00, 0x00, 0x00,
  0x1a, 0x00, 0x00, 0x00, 0x73, 0x65, 0x71, 0x75, 0x65, 0x6e, 0x74, 0x69,
  0x61, 0x6c, 0x2f, 0x66, 0x6c, 0x61, 0x74, 0x74, 0x65, 0x6e, 0x2f, 0x52,
  0x65, 0x73, 0x68, 0x61, 0x70, 0x65, 0x00, 0x00, 0x02, 0x00, 0x00, 0x00,
  0xff, 0xff, 0xff, 0xff, 0x70, 0x00, 0x00, 0x00, 0x70, 0xd1, 0xff, 0xff,
  0x3e, 0xfe, 0xff, 0xff, 0x00, 0x00, 0x00, 0x05, 0x01, 0x00, 0x00, 0x00,
  0x38, 0x00, 0x00, 0x00, 0x2c, 0x00, 0x00, 0x00, 0x14, 0x00, 0x00, 0x00,
  0x00, 0x00, 0x0e, 0x00, 0x14, 0x00, 0x00, 0x00, 0x10, 0x00, 0x0c, 0x00,
  0x08, 0x00, 0x04, 0x00, 0x0e, 0x00, 0x00, 0x00, 0x03, 0x00, 0x00, 0x00,
  0x01, 0x00, 0x00, 0x00, 0x03, 0x00, 0x00, 0x00, 0x01, 0x00, 0x00, 0x00,
  0x01, 0x00, 0x00, 0x00, 0x0d, 0x00, 0x00, 0x00, 0x01, 0x00, 0x00, 0x00,
  0x0c, 0x00, 0x00, 0x00, 0x2c, 0xd2, 0xff, 0xff, 0x14, 0x00, 0x00, 0x00,
  0x0e, 0x00, 0x00, 0x00, 0x20, 0x00, 0x00, 0x00, 0x58, 0x00, 0x00, 0x00,
  0x40, 0x00, 0x00, 0x00, 0x04, 0x00, 0x00, 0x00, 0x01, 0x00, 0x00, 0x00,
  0x07, 0x00, 0x00, 0x00, 0x01, 0x00, 0x00, 0x00, 0x10, 0x00, 0x00, 0x00,
  0x22, 0x00, 0x00, 0x00, 0x73, 0x65, 0x71, 0x75, 0x65, 0x6e, 0x74, 0x69,
  0x61, 0x6c, 0x2f, 0x6d, 0x61, 0x78, 0x5f, 0x70, 0x6f, 0x6f, 0x6c, 0x69,
  0x6e, 0x67, 0x32, 0x64, 0x5f, 0x31, 0x2f, 0x4d, 0x61, 0x78, 0x50, 0x6f,
  0x6f, 0x6c, 0x00, 0x00, 0x04, 0x00, 0x00, 0x00, 0xff, 0xff, 0xff, 0xff,
  0x07, 0x00, 0x00, 0x00, 0x01, 0x00, 0x00, 0x00, 0x10, 0x00, 0x00, 0x00,
  0x28, 0xd2, 0xff, 0xff, 0x1a, 0xfe, 0xff, 0xff, 0x00, 0x00, 0x00, 0x01,
  0x24, 0x00, 0x00, 0x00, 0x18, 0x00, 0x00, 0x00, 0x04, 0x00, 0x00, 0x00,
  0x0c, 0xfe, 0xff, 0xff, 0x01, 0x00, 0x00, 0x00, 0x01, 0x00, 0x00, 0x00,
  0x00, 0x00, 0x00, 0x01, 0x01, 0x00, 0x00, 0x00, 0x0c, 0x00, 0x00, 0x00,
  0x03, 0x00, 0x00, 0x00, 0x0b, 0x00, 0x00, 0x00, 0x09, 0x00, 0x00, 0x00,
  0x02, 0x00, 0x00, 0x00, 0xd4, 0xd2, 0xff, 0xff, 0x14, 0x00, 0x00, 0x00,
  0x0d, 0x00, 0x00, 0x00, 0x20, 0x00, 0x00, 0x00, 0xb8, 0x00, 0x00, 0x00,
  0xa0, 0x00, 0x00, 0x00, 0x04, 0x00, 0x00, 0x00, 0x01, 0x00, 0x00, 0x00,
  0x15, 0x00, 0x00, 0x00, 0x01, 0x00, 0x00, 0x00, 0x10, 0x00, 0x00, 0x00,
  0x83, 0x00, 0x00, 0x00, 0x73, 0x65, 0x71, 0x75, 0x65, 0x6e, 0x74, 0x69,
  0x61, 0x6c, 0x2f, 0x63, 0x6f, 0x6e, 0x76, 0x32, 0x64, 0x5f, 0x31, 0x2f,
  0x52, 0x65, 0x6c, 0x75, 0x3b, 0x73, 0x65, 0x71, 0x75, 0x65, 0x6e, 0x74,
  0x69, 0x61, 0x6c, 0x2f, 0x63, 0x6f, 0x6e, 0x76, 0x32, 0x64, 0x5f, 0x31,
  0x2f, 0x42, 0x69, 0x61, 0x73, 0x41, 0x64, 0x64, 0x3b, 0x73, 0x65, 0x71,
  0x75, 0x65, 0x6e, 0x74, 0x69, 0x61, 0x6c, 0x2f, 0x63, 0x6f, 0x6e, 0x76,
  0x32, 0x64, 0x5f, 0x31, 0x2f, 0x43, 0x6f, 0x6e, 0x76, 0x32, 0x44, 0x3b,
  0x73, 0x65, 0x71, 0x75, 0x65, 0x6e, 0x74, 0x69, 0x61, 0x6c, 0x2f, 0x63,
  0x6f, 0x6e, 0x76, 0x32, 0x64, 0x5f, 0x31, 0x2f, 0x42, 0x69, 0x61, 0x73,
  0x41, 0x64, 0x64, 0x2f, 0x52, 0x65, 0x61, 0x64, 0x56, 0x61, 0x72, 0x69,
  0x61, 0x62, 0x6c, 0x65, 0x4f, 0x70, 0x2f, 0x72, 0x65, 0x73, 0x6f, 0x75,
  0x72, 0x63, 0x65, 0x00, 0x04, 0x00, 0x00, 0x00, 0xff, 0xff, 0xff, 0xff,
  0x15, 0x00, 0x00, 0x00, 0x01, 0x00, 0x00, 0x00, 0x10, 0x00, 0x00, 0x00,
  0x40, 0xd4, 0xff, 0xff, 0x00, 0x00, 0x0e, 0x00, 0x1a, 0x00, 0x08, 0x00,
  0x0c, 0x00, 0x10, 0x00, 0x07, 0x00, 0x14, 0x00, 0x0e, 0x00, 0x00, 0x00,
  0x00, 0x00, 0x00, 0x05, 0x01, 0x00, 0x00, 0x00, 0x3c, 0x00, 0x00, 0x00,
  0x30, 0x00, 0x00, 0x00, 0x14, 0x00, 0x00, 0x00, 0x00, 0x00, 0x0e, 0x00,
  0x18, 0x00, 0x17, 0x00, 0x10, 0x00, 0x0c, 0x00, 0x08, 0x00, 0x04, 0x00,
  0x0e, 0x00, 0x00, 0x00, 0x03, 0x00, 0x00, 0x00, 0x03, 0x00, 0x00, 0x00,
  0x03, 0x00, 0x00, 0x00, 0x03, 0x00, 0x00, 0x00, 0x00, 0x00, 0x00, 0x01,
  0x01, 0x00, 0x00, 0x00, 0x0b, 0x00, 0x00, 0x00, 0x01, 0x00, 0x00, 0x00,
  0x0a, 0x00, 0x00, 0x00, 0x2c, 0xff, 0xff, 0xff, 0x11, 0x00, 0x00, 0x00,
  0x00, 0x00, 0x00, 0x11, 0x01, 0x00, 0x00, 0x00, 0x10, 0xd4, 0xff, 0xff,
  0x14, 0x00, 0x00, 0x00, 0x0c, 0x00, 0x00, 0x00, 0x20, 0x00, 0x00, 0x00,
  0x58, 0x00, 0x00, 0x00, 0x40, 0x00, 0x00, 0x00, 0x04, 0x00, 0x00, 0x00,
  0x01, 0x00, 0x00, 0x00, 0x15, 0x00, 0x00, 0x00, 0x01, 0x00, 0x00, 0x00,
  0x08, 0x00, 0x00, 0x00, 0x20, 0x00, 0x00, 0x00, 0x73, 0x65, 0x71, 0x75,
  0x65, 0x6e, 0x74, 0x69, 0x61, 0x6c, 0x2f, 0x6d, 0x61, 0x78, 0x5f, 0x70,
  0x6f, 0x6f, 0x6c, 0x69, 0x6e, 0x67, 0x32, 0x64, 0x2f, 0x4d, 0x61, 0x78,
  0x50, 0x6f, 0x6f, 0x6c, 0x00, 0x00, 0x00, 0x00, 0x04, 0x00, 0x00, 0x00,
  0xff, 0xff, 0xff, 0xff, 0x15, 0x00, 0x00, 0x00, 0x01, 0x00, 0x00, 0x00,
  0x08, 0x00, 0x00, 0x00, 0x1c, 0xd5, 0xff, 0xff, 0x00, 0x00, 0x0e, 0x00,
  0x14, 0x00, 0x00, 0x00, 0x08, 0x00, 0x0c, 0x00, 0x07, 0x00, 0x10, 0x00,
  0x0e, 0x00, 0x00, 0x00, 0x00, 0x00, 0x00, 0x01, 0x30, 0x00, 0x00, 0x00,
  0x24, 0x00, 0x00, 0x00, 0x10, 0x00, 0x00, 0x00, 0x0c, 0x00, 0x10, 0x00,
  0x00, 0x00, 0x04, 0x00, 0x08, 0x00, 0x0f, 0x00, 0x0c, 0x00, 0x00, 0x00,
  0x01, 0x00, 0x00, 0x00, 0x01, 0x00, 0x00, 0x00, 0x00, 0x00, 0x00, 0x01,
  0x01, 0x00, 0x00, 0x00, 0x0a, 0x00, 0x00, 0x00, 0x03, 0x00, 0x00, 0x00,
  0x00, 0x00, 0x00, 0x00, 0x08, 0x00, 0x00, 0x00, 0x01, 0x00, 0x00, 0x00,
  0x0c, 0x00, 0x10, 0x00, 0x0b, 0x00, 0x00, 0x00, 0x0c, 0x00, 0x04, 0x00,
  0x0c, 0x00, 0x00, 0x00, 0x03, 0x00, 0x00, 0x00, 0x00, 0x00, 0x00, 0x03,
  0x01, 0x00, 0x00, 0x00, 0xf0, 0xd4, 0xff, 0xff, 0x14, 0x00, 0x00, 0x00,
  0x0b, 0x00, 0x00, 0x00, 0x20, 0x00, 0x00, 0x00, 0xb0, 0x00, 0x00, 0x00,
  0x98, 0x00, 0x00, 0x00, 0x04, 0x00, 0x00, 0x00, 0x01, 0x00, 0x00, 0x00,
  0x40, 0x00, 0x00, 0x00, 0x03, 0x00, 0x00, 0x00, 0x08, 0x00, 0x00, 0x00,
  0x7b, 0x00, 0x00, 0x00, 0x73, 0x65, 0x71, 0x75, 0x65, 0x6e, 0x74, 0x69,
  0x61, 0x6c, 0x2f, 0x63, 0x6f, 0x6e, 0x76, 0x32, 0x64, 0x2f, 0x52, 0x65,
  0x6c, 0x75, 0x3b, 0x73, 0x65, 0x71, 0x75, 0x65, 0x6e, 0x74, 0x69, 0x61,
  0x6c, 0x2f, 0x63, 0x6f, 0x6e, 0x76, 0x32, 0x64, 0x2f, 0x42, 0x69, 0x61,
  0x73, 0x41, 0x64, 0x64, 0x3b, 0x73, 0x65, 0x71, 0x75, 0x65, 0x6e, 0x74,
  0x69, 0x61, 0x6c, 0x2f, 0x63, 0x6f, 0x6e, 0x76, 0x32, 0x64, 0x2f, 0x43,
  0x6f, 0x6e, 0x76, 0x32, 0x44, 0x3b, 0x73, 0x65, 0x71, 0x75, 0x65, 0x6e,
  0x74, 0x69, 0x61, 0x6c, 0x2f, 0x63, 0x6f, 0x6e, 0x76, 0x32, 0x64, 0x2f,
  0x42, 0x69, 0x61, 0x73, 0x41, 0x64, 0x64, 0x2f, 0x52, 0x65, 0x61, 0x64,
  0x56, 0x61, 0x72, 0x69, 0x61, 0x62, 0x6c, 0x65, 0x4f, 0x70, 0x2f, 0x72,
  0x65, 0x73, 0x6f, 0x75, 0x72, 0x63, 0x65, 0x00, 0x04, 0x00, 0x00, 0x00,
  0xff, 0xff, 0xff, 0xff, 0x40, 0x00, 0x00, 0x00, 0x03, 0x00, 0x00, 0x00,
  0x08, 0x00, 0x00, 0x00, 0x44, 0xd5, 0xff, 0xff, 0x4e, 0xd6, 0xff, 0xff,
  0x04, 0x00, 0x00, 0x00, 0x00, 0x08, 0x00, 0x00, 0x4c, 0x90, 0x3f, 0x3e,
  0x2a, 0xcb, 0x86, 0xbd, 0x2e, 0xaf, 0x00, 0xbb, 0xa1, 0xdd, 0xa1, 0x3e,
  0x0b, 0xcb, 0xc7, 0xbd, 0xa9, 0x15, 0x3b, 0x3e, 0x91, 0x28, 0x84, 0x3e,
  0xc4, 0xe4, 0xc0, 0x3c, 0xc7, 0xe4, 0x36, 0x3d, 0x59, 0x00, 0x89, 0xbc,
  0x00, 0x4a, 0x4e, 0x3d, 0xb8, 0xb5, 0x0b, 0xbe, 0x0c, 0x18, 0xe2, 0x3d,
  0x4e, 0x66, 0x0e, 0x3e, 0xce, 0x51, 0x0b, 0xbe, 0x6a, 0x59, 0x5c, 0x3e,
  0x50, 0x67, 0x7c, 0x3e, 0x88, 0xb4, 0x8f, 0x3e, 0xb6, 0x80, 0xa1, 0x3e,
  0x74, 0x74, 0xed, 0x3d, 0x8d, 0xe7, 0x1b, 0x3e, 0x20, 0x53, 0xc1, 0x3e,
  0xc8, 0x3a, 0xa9, 0x3e, 0x60, 0xfa, 0x8d, 0x3d, 0x8d, 0x01, 0x67, 0x3d,
  0xd8, 0x2d, 0xb2, 0xbc, 0xc6, 0xec, 0xa2, 0xbd, 0xbe, 0xf4, 0x91, 0x3e,
  0x2f, 0x50, 0x25, 0xbe, 0xde, 0x7e, 0x12, 0xbe, 0x93, 0xee, 0xad, 0xbd,
  0x07, 0xf6, 0x27, 0x3d, 0x19, 0xdf, 0x28, 0xbe, 0x19, 0x35, 0x2d, 0xbe,
  0xe8, 0x93, 0xd1, 0xbc, 0xf8, 0xcc, 0xd9, 0x3d, 0xaa, 0x7f, 0x8e, 0xbd,
  0x73, 0x1c, 0x94, 0xbd, 0xd3, 0xfe, 0x62, 0xbe, 0x8b, 0xd1, 0x93, 0x3c,
  0x03, 0x36, 0x13, 0x3e, 0xb9, 0x8b, 0x66, 0xbd, 0x5f, 0x83, 0x76, 0x3e,
  0xba, 0x17, 0xdf, 0x3d, 0x9b, 0x60, 0xb4, 0x3d, 0x55, 0x30, 0xe3, 0x3d,
  0xaf, 0x9b, 0x2e, 0x3d, 0x2a, 0x7b, 0x65, 0x3e, 0xad, 0x20, 0x9b, 0x3d,
  0x72, 0x93, 0xa0, 0xbd, 0x3d, 0xd5, 0x1d, 0xbd, 0x04, 0x26, 0xef, 0x3d,
  0xaf, 0x63, 0xc3, 0x3d, 0xd5, 0x89, 0x30, 0x3e, 0xc7, 0xee, 0x38, 0x3c,
  0x0e, 0x28, 0xbe, 0x3d, 0x42, 0xfe, 0x3b, 0x3c, 0x01, 0xe7, 0x3f, 0x3e,
  0xec, 0x59, 0xe2, 0xbd, 0x1f, 0x08, 0x14, 0x3e, 0x6d, 0x10, 0x43, 0xbe,
  0x5c, 0x8e, 0x5a, 0xbe, 0xc5, 0xd5, 0x44, 0xbe, 0xb9, 0xa3, 0x8d, 0xbe,
  0x07, 0xd8, 0x5c, 0xbe, 0x10, 0xe3, 0x77, 0x3e, 0x38, 0x2c, 0x2d, 0xbe,
  0xbf, 0xac, 0x0b, 0xbe, 0xef, 0x2f, 0x13, 0xbe, 0xc8, 0xa5, 0xe0, 0xbd,
  0x3e, 0x6e, 0x02, 0x3e, 0xa9, 0xfe, 0x18, 0xbe, 0x52, 0x6a, 0xb1, 0x3d,
  0xd9, 0x2b, 0x05, 0x3d, 0x94, 0xf3, 0x56, 0x3d, 0x8d, 0x8d, 0x3d, 0xbe,
  0xe3, 0x30, 0x32, 0xbe, 0x33, 0x88, 0xdd, 0xbd, 0x67, 0x98, 0x30, 0xbe,
  0xab, 0xf1, 0xef, 0x3d, 0x96, 0xa2, 0x43, 0x3e, 0x46, 0x6f, 0x35, 0x3e,
  0x62, 0xc1, 0x83, 0x3e, 0x3e, 0xfe, 0x83, 0xbd, 0xa0, 0x1b, 0x53, 0xbe,
  0x49, 0x0b, 0x1f, 0x3e, 0x5e, 0x6d, 0x53, 0xbe, 0x49, 0xa1, 0x96, 0x3d,
  0x1b, 0xf6, 0x34, 0x3e, 0xe4, 0x74, 0x12, 0xbd, 0x66, 0xba, 0x8a, 0xba,
  0xd3, 0x8f, 0x7a, 0xbc, 0x47, 0xa4, 0x4c, 0x3e, 0xfe, 0x33, 0x4f, 0x3c,
  0x93, 0x5f, 0x46, 0xbd, 0xa0, 0x43, 0x11, 0xbe, 0x80, 0x4b, 0x42, 0x3d,
  0x9b, 0x6e, 0x3b, 0x3e, 0x65, 0x28, 0xc9, 0xbd, 0x1a, 0xfb, 0xf1, 0xbd,
  0x5c, 0x95, 0x85, 0x3e, 0xa4, 0x53, 0xa0, 0x3c, 0x1c, 0x74, 0x24, 0x3e,
  0x8b, 0x14, 0x68, 0x3e, 0x45, 0xd4, 0x52, 0x3e, 0xd5, 0x10, 0x75, 0x3e,
  0xd3, 0xa6, 0x0f, 0x3e, 0x29, 0xc7, 0x28, 0x3e, 0x08, 0x62, 0x5a, 0x3e,
  0x37, 0x4d, 0xe7, 0xbd, 0x2d, 0x5e, 0x2f, 0xbe, 0xce, 0x00, 0x14, 0xbe,
  0x8f, 0x9a, 0x3e, 0xbe, 0xa5, 0xfc, 0x85, 0x3e, 0x27, 0x9f, 0x38, 0xbc,
  0x0b, 0x8e, 0x23, 0x3e, 0x84, 0x55, 0x4c, 0x3e, 0x7b, 0x2b, 0x33, 0x3e,
  0x79, 0xf5, 0x1e, 0x3e, 0xab, 0x07, 0xa8, 0x3d, 0x7a, 0x9e, 0x28, 0xbe,
  0x52, 0x84, 0x05, 0x3e, 0xa2, 0x1e, 0x7f, 0xbe, 0xec, 0xb2, 0x68, 0x3e,
  0x3f, 0x55, 0x36, 0xbe, 0x73, 0x49, 0x02, 0xbe, 0xce, 0xec, 0xe3, 0x3d,
  0x01, 0x93, 0x16, 0x3e, 0xd6, 0xbc, 0x48, 0xbe, 0x8f, 0xfd, 0x3c, 0x3d,
  0x04, 0x42, 0xaa, 0x3d, 0x84, 0xd8, 0x28, 0xbd, 0x62, 0xf8, 0xe9, 0x3d,
  0x06, 0xcb, 0x75, 0xbe, 0xe2, 0xe7, 0x18, 0xba, 0x4f, 0xb4, 0xe7, 0xbd,
  0xd6, 0x7a, 0xb2, 0xbb, 0xee, 0x6f, 0x7f, 0xbd, 0x51, 0xa6, 0x0b, 0x3e,
  0xf8, 0x93, 0x7c, 0xbe, 0x92, 0x28, 0x32, 0x3d, 0x0b, 0x8c, 0x11, 0xbe,
  0xd5, 0xd4, 0x6f, 0xbe, 0xff, 0x1b, 0xf7, 0xbc, 0xc4, 0x18, 0x4c, 0xbe,
  0x24, 0x7f, 0x3a, 0x3e, 0x3c, 0xf4, 0x18, 0x3e, 0x33, 0x99, 0x88, 0x3d,
  0x87, 0xc7, 0xca, 0x3d, 0xc9, 0xb5, 0x13, 0xbe, 0x25, 0x8c, 0x21, 0xbe,
  0x1d, 0xa8, 0xdc, 0xbb, 0x88, 0x91, 0x9a, 0x3c, 0xf6, 0xcb, 0x59, 0xbe,
  0xe7, 0x71, 0x44, 0x3e, 0xe5, 0x20, 0x1c, 0x3d, 0x18, 0xa9, 0xad, 0x3d,
  0xe6, 0xba, 0x5a, 0x3d, 0x54, 0x6d, 0xbc, 0x3c, 0x3e, 0xe4, 0xf7, 0xbd,
  0x90, 0x6f, 0x4c, 0x3e, 0xe7, 0x14, 0x5c, 0x3d, 0xf6, 0x29, 0x20, 0x3e,
  0x17, 0x96, 0xed, 0x3d, 0x9c, 0x99, 0x2c, 0x3d, 0x7a, 0x5a, 0x81, 0x3e,
  0xb6, 0x8d, 0x13, 0x3e, 0x94, 0x15, 0x88, 0x3c, 0xcd, 0x0e, 0x3a, 0xbd,
  0x72, 0xd8, 0x0b, 0xbe, 0x39, 0x2d, 0x8d, 0xbd, 0x89, 0xab, 0x4f, 0xbd,
  0x22, 0x40, 0xbf, 0xbd, 0x64, 0xfd, 0xc1, 0x3b, 0x5a, 0x44, 0xb5, 0x3b,
  0x68, 0x8c, 0x2a, 0x3e, 0x4d, 0xba, 0x5d, 0x3e, 0xff, 0xb3, 0x28, 0xbe,
  0x28, 0x93, 0xb0, 0x3c, 0x87, 0x2a, 0x06, 0x3c, 0x43, 0xdd, 0xdc, 0x3c,
  0xa7, 0x2d, 0x50, 0xbe, 0xea, 0x5a, 0x1a, 0x3e, 0x5b, 0x36, 0x1c, 0xbd,
  0xd7, 0x46, 0xbb, 0xbc, 0xad, 0x83, 0xc2, 0xbd, 0x50, 0x4a, 0xa9, 0xbd,
  0xda, 0xa5, 0xd5, 0xbd, 0xa6, 0x6b, 0xf2, 0xbd, 0x13, 0xdc, 0x7f, 0xbe,
  0x55, 0xd8, 0x18, 0xbe, 0xaa, 0xc5, 0x30, 0xbe, 0xc9, 0x3f, 0x16, 0xbe,
  0xed, 0x84, 0xa4, 0xbc, 0xff, 0x0f, 0xb0, 0xbd, 0xc2, 0x1a, 0x0c, 0x3e,
  0x2c, 0x63, 0x67, 0x3d, 0xf6, 0x9d, 0x51, 0xbe, 0xca, 0x2f, 0xa6, 0x3c,
  0x55, 0xdc, 0xd9, 0xbc, 0x70, 0x20, 0x40, 0x3e, 0xb8, 0x98, 0xb7, 0xbd,
  0x77, 0x6b, 0x09, 0x3e, 0x1a, 0x59, 0x83, 0x3e, 0x51, 0x10, 0xbe, 0x3d,
  0x4e, 0x5a, 0x87, 0x3c, 0xde, 0x40, 0xd8, 0xbc, 0x99, 0xe9, 0x28, 0x3e,
  0xb3, 0xfa, 0xf8, 0x3d, 0xe7, 0x75, 0x2a, 0x3b, 0xcc, 0x7a, 0x79, 0x3e,
  0xcc, 0x43, 0xd8, 0x3c, 0x27, 0xb8, 0xf0, 0x3d, 0x4d, 0x15, 0x30, 0xbd,
  0x55, 0x31, 0x1e, 0xbc, 0xac, 0xbf, 0x61, 0x3e, 0xea, 0x8d, 0x26, 0xbd,
  0x8b, 0x36, 0x83, 0x3e, 0xb6, 0xb7, 0x26, 0x3e, 0xe0, 0x65, 0x8b, 0x3e,
  0x5f, 0x0f, 0x57, 0x3e, 0x8e, 0x53, 0x0f, 0x3d, 0xb5, 0xe1, 0x92, 0x3e,
  0x98, 0x5e, 0xa9, 0x3d, 0x92, 0xd5, 0xd1, 0x3d, 0xc2, 0x01, 0x46, 0xbd,
  0x5d, 0x3e, 0x39, 0xbe, 0x20, 0xaf, 0x13, 0x3e, 0x54, 0x0d, 0x9a, 0xbe,
  0x92, 0xd2, 0x86, 0xbe, 0x7d, 0x4d, 0xc4, 0xbd, 0x76, 0x52, 0xeb, 0x3d,
  0x8e, 0xe4, 0x73, 0xbe, 0xcb, 0x1e, 0x73, 0xbd, 0x19, 0xd1, 0x30, 0x3e,
  0x38, 0x1b, 0x3f, 0x3e, 0x80, 0x45, 0x93, 0xbe, 0x53, 0x47, 0xad, 0xbd,
  0x25, 0x57, 0x91, 0xbe, 0x0f, 0x71, 0xee, 0xbc, 0xb2, 0x04, 0x0c, 0x3d,
  0xc2, 0xd9, 0x8a, 0xbe, 0xc3, 0xac, 0x1e, 0xbe, 0x83, 0x0b, 0xc9, 0x3c,
  0x77, 0xbe, 0x35, 0xbe, 0xda, 0x9b, 0x1f, 0xbe, 0x3b, 0x5b, 0x59, 0xbe,
  0x46, 0xc9, 0x0b, 0xbe, 0x26, 0x68, 0xc6, 0xbd, 0x60, 0x1f, 0xfe, 0x3d,
  0xe0, 0xa9, 0x09, 0x3e, 0x21, 0x42, 0x08, 0x3e, 0xc2, 0x7f, 0x4f, 0xbd,
  0xb3, 0x66, 0xe5, 0x3d, 0x48, 0xd9, 0xff, 0x3d, 0xac, 0x83, 0x61, 0x3e,
  0xe3, 0xa6, 0x0c, 0xbe, 0x2e, 0xcc, 0x36, 0xbc, 0xe0, 0x91, 0x4c, 0xbd,
  0x37, 0x20, 0x60, 0x3e, 0xbf, 0x6a, 0x83, 0x3d, 0xd8, 0x43, 0x05, 0xbb,
  0xb2, 0x44, 0x87, 0x3d, 0x64, 0xde, 0xb4, 0x3c, 0xb3, 0x94, 0x37, 0xbe,
  0x48, 0x98, 0x00, 0x3e, 0x5d, 0xa3, 0x47, 0xbe, 0x0d, 0xd6, 0xd0, 0x3d,
  0x74, 0x44, 0x89, 0x3e, 0x95, 0xea, 0xa5, 0xbd, 0x83, 0xad, 0x10, 0x3e,
  0x2a, 0x17, 0x79, 0x3d, 0xc9, 0xdd, 0x4c, 0x3e, 0x99, 0x32, 0x84, 0x3e,
  0x95, 0xab, 0x98, 0xbd, 0x67, 0x52, 0x70, 0x3e, 0x4a, 0xfe, 0x7c, 0xbd,
  0x2b, 0xf0, 0x0b, 0x3e, 0x33, 0x6f, 0x79, 0x3e, 0x7c, 0x15, 0xa4, 0x3d,
  0x42, 0xb1, 0x3d, 0x3d, 0x1b, 0x21, 0x66, 0xbe, 0x9c, 0xb9, 0xe5, 0x3d,
  0xe6, 0x71, 0xf9, 0xbd, 0x68, 0x61, 0x6e, 0x3e, 0x09, 0x40, 0x6c, 0x3e,
  0x09, 0xae, 0xca, 0xbd, 0xba, 0xf1, 0x09, 0x3e, 0x82, 0x4f, 0x4a, 0xbd,
  0xfd, 0xc1, 0x84, 0x3d, 0x68, 0xdb, 0xbf, 0xbd, 0x76, 0xdd, 0x92, 0xbd,
  0xe2, 0xff, 0x28, 0xbd, 0xc0, 0x43, 0xbc, 0x3d, 0x86, 0x8e, 0x66, 0xbd,
  0x9c, 0x5e, 0xad, 0xbd, 0x86, 0x42, 0xda, 0x3d, 0xe0, 0x0f, 0x5e, 0xbe,
  0xa8, 0xbc, 0x0f, 0x3e, 0x5a, 0x44, 0x77, 0x3e, 0x81, 0x6a, 0x6f, 0xbd,
  0xc3, 0x36, 0x6d, 0xbd, 0xf0, 0xda, 0x3d, 0xbe, 0xaf, 0x97, 0xb5, 0x3d,
  0x9a, 0x8f, 0xae, 0x3d, 0x28, 0x8c, 0x6a, 0xbe, 0x21, 0x87, 0x5d, 0xbe,
  0x79, 0x84, 0x5d, 0x3e, 0x9d, 0x41, 0xbf, 0xbd, 0x45, 0xb7, 0x7f, 0xbe,
  0x0b, 0xc4, 0x8d, 0x3d, 0xbf, 0x75, 0x79, 0xbe, 0xf9, 0xa1, 0x92, 0xbe,
  0xf8, 0x6c, 0x93, 0x3c, 0xe1, 0xc5, 0xcb, 0xbd, 0x4f, 0x0a, 0x1f, 0xbe,
  0x3f, 0x2b, 0x49, 0x3e, 0xe5, 0xb2, 0x9d, 0x3c, 0x7e, 0x94, 0x19, 0xbc,
  0x8f, 0x56, 0x9e, 0xbd, 0x42, 0xca, 0x2a, 0x3d, 0x77, 0xc2, 0x6a, 0x3e,
  0xb9, 0x61, 0xb1, 0x3c, 0x5b, 0x2c, 0xb6, 0x3d, 0xe1, 0xba, 0xab, 0x3d,
  0x09, 0xb9, 0x99, 0xbc, 0xd7, 0x50, 0x64, 0x3e, 0x3c, 0x38, 0x3b, 0xbe,
  0x27, 0xc0, 0x6d, 0x3d, 0x91, 0x84, 0x2a, 0xbe, 0x0c, 0x07, 0x16, 0xbe,
  0x26, 0xc1, 0xaa, 0x3c, 0xff, 0x72, 0x73, 0xbe, 0xe2, 0x99, 0xeb, 0x3d,
  0x06, 0x94, 0xe7, 0xbc, 0xa2, 0xbe, 0xe6, 0xbd, 0x66, 0x82, 0x52, 0x3e,
  0x31, 0x87, 0x75, 0xbe, 0xd7, 0x45, 0x20, 0xbe, 0x16, 0xf9, 0x07, 0xbe,
  0xbd, 0xb4, 0x7c, 0xbe, 0x06, 0x5a, 0x37, 0xbe, 0xcf, 0x60, 0x2f, 0x3e,
  0xa4, 0x70, 0x6e, 0xbd, 0xd1, 0xb1, 0x19, 0xbe, 0x7c, 0xb9, 0x26, 0xbe,
  0x1c, 0xf6, 0x8a, 0xbc, 0x76, 0xf5, 0xfd, 0x3d, 0x5b, 0x69, 0x3d, 0xbe,
  0xbd, 0xb6, 0x24, 0x3e, 0xd1, 0xfb, 0xc9, 0x3d, 0xea, 0x8a, 0xd9, 0xbc,
  0x11, 0x4d, 0x0a, 0xbe, 0x54, 0xc8, 0x44, 0xbe, 0xd0, 0x65, 0x3d, 0xbd,
  0x3b, 0xd3, 0xf0, 0xbd, 0x48, 0xdd, 0x52, 0xbe, 0x6a, 0x65, 0x82, 0x3d,
  0xae, 0x24, 0x78, 0xbe, 0xc4, 0x66, 0x25, 0x3e, 0x1d, 0x41, 0x01, 0xbe,
  0x2b, 0xa2, 0xad, 0xbd, 0x9d, 0x9f, 0x7e, 0x3d, 0x45, 0x92, 0x5a, 0xbe,
  0xbb, 0x65, 0x25, 0xbe, 0x03, 0xdf, 0xc0, 0xbd, 0x70, 0x44, 0x3b, 0xbe,
  0x46, 0xf8, 0xc7, 0x3d, 0x7f, 0x2b, 0x54, 0xbe, 0xd3, 0xba, 0x44, 0x3e,
  0x6b, 0x6f, 0x19, 0xbd, 0x28, 0x05, 0xb9, 0xbd, 0xe7, 0xe4, 0x17, 0x3e,
  0x4e, 0x9d, 0x2a, 0xbe, 0x4e, 0x3b, 0xa1, 0x3d, 0xbe, 0x0e, 0xbf, 0xbc,
  0xe0, 0x85, 0x6d, 0xbd, 0x2c, 0x24, 0xe2, 0xbd, 0x56, 0x98, 0xed, 0x3d,
  0x75, 0x2c, 0xf4, 0x3b, 0x2a, 0x0f, 0x64, 0xbe, 0xf4, 0x90, 0x46, 0x3e,
  0x1d, 0x58, 0x27, 0x3e, 0xb0, 0x26, 0x2e, 0x3e, 0x88, 0x21, 0x65, 0x3d,
  0x90, 0xc3, 0x68, 0x3e, 0xf2, 0x2e, 0x42, 0x3e, 0x11, 0x04, 0xc2, 0xbd,
  0xbb, 0xcc, 0xc4, 0xbb, 0x16, 0xc2, 0x9e, 0x3d, 0x19, 0x00, 0x20, 0x3d,
  0x95, 0xcc, 0xf7, 0x3b, 0x53, 0x28, 0x65, 0x3e, 0x05, 0xde, 0xbf, 0x3d,
  0x00, 0x52, 0x58, 0x3e, 0x8c, 0x32, 0xe1, 0x3c, 0xdc, 0xd1, 0x23, 0x3e,
  0x1a, 0xd7, 0x61, 0x3e, 0xd4, 0x4f, 0x87, 0x3e, 0x71, 0xb1, 0xa8, 0x3d,
  0xc2, 0xf4, 0x85, 0x3b, 0x48, 0x51, 0x3a, 0x3e, 0xf3, 0x3d, 0x93, 0x3e,
  0xcd, 0xe9, 0xb5, 0x3c, 0x7a, 0xfd, 0x46, 0x3d, 0x43, 0xff, 0xb8, 0xbd,
  0xa6, 0xfb, 0x9f, 0x3d, 0xa8, 0x88, 0x7c, 0x3e, 0xe0, 0x82, 0x5d, 0xbd,
  0xd1, 0x46, 0x12, 0xbe, 0x47, 0x4c, 0xff, 0x3d, 0x24, 0x27, 0x7b, 0xbd,
  0x18, 0x89, 0x1a, 0xbe, 0x31, 0xf4, 0xd1, 0xbd, 0x08, 0xd3, 0xb3, 0x3b,
  0xbb, 0xc5, 0x2c, 0xbe, 0x87, 0x7d, 0xd8, 0x3b, 0x48, 0x38, 0x64, 0xbe,
  0x25, 0x69, 0xc2, 0xba, 0xc0, 0x4e, 0x60, 0x3e, 0xf5, 0x1e, 0xd2, 0xbd,
  0x3b, 0xb3, 0xda, 0x3c, 0xaf, 0x8f, 0x58, 0xbe, 0xcf, 0x7c, 0x4a, 0xbe,
  0x74, 0x11, 0x5e, 0xbd, 0x74, 0x6a, 0x6f, 0x3d, 0x68, 0x17, 0x0d, 0x3e,
  0x40, 0xe0, 0x5a, 0x3e, 0x7e, 0x10, 0x87, 0xbd, 0x55, 0x4b, 0x01, 0xbe,
  0x7e, 0x71, 0x2b, 0x3e, 0x12, 0x64, 0x0c, 0xbd, 0x9e, 0xef, 0x03, 0xbd,
  0xd0, 0xa3, 0x20, 0x3d, 0x7c, 0x81, 0x29, 0xbe, 0xc5, 0x83, 0xcb, 0x3b,
  0x27, 0x7a, 0x51, 0xbd, 0xe8, 0x37, 0x15, 0xbe, 0xe7, 0xd4, 0x68, 0x3d,
  0xd6, 0xb8, 0xa1, 0xbd, 0xbb, 0xf7, 0xac, 0x3d, 0xd7, 0x1a, 0x2a, 0xbe,
  0x70, 0xaa, 0x44, 0x3e, 0xee, 0xb8, 0x4a, 0x3d, 0xb0, 0xed, 0xd7, 0xbd,
  0xe6, 0xfd, 0xfc, 0x3d, 0xa5, 0x9b, 0x55, 0xbe, 0xd2, 0x2f, 0x30, 0x3e,
  0x15, 0x81, 0x6d, 0xbe, 0xf6, 0x0a, 0xc1, 0xbc, 0x69, 0xbf, 0x99, 0xbd,
  0xf6, 0x36, 0x81, 0x3c, 0x35, 0x79, 0xa3, 0xbc, 0x24, 0x70, 0x2c, 0xbe,
  0xeb, 0x8f, 0x0e, 0xbd, 0xd8, 0xda, 0xc3, 0x3d, 0xb0, 0x76, 0x08, 0xbd,
  0xf6, 0x2f, 0x1e, 0x3e, 0x5e, 0x65, 0x0e, 0xbe, 0xe1, 0x57, 0x56, 0x3c,
  0x19, 0x3d, 0xaa, 0x3c, 0xe3, 0xe9, 0x53, 0xbe, 0xba, 0x0f, 0x5f, 0xbe,
  0x5c, 0x5d, 0x3d, 0xbe, 0xf7, 0x9c, 0x95, 0xbc, 0x7b, 0x22, 0x87, 0xbd,
  0x79, 0x40, 0x20, 0x3e, 0x6c, 0x6b, 0x54, 0x3e, 0x58, 0xed, 0x92, 0xbd,
  0xa2, 0x53, 0x8e, 0xbe, 0x54, 0x44, 0xc2, 0xbd, 0x39, 0x16, 0xe8, 0xbd,
  0xa7, 0xa7, 0xa4, 0x3d, 0x15, 0xd2, 0xa5, 0xbe, 0xbe, 0xcc, 0xb2, 0xbd,
  0xea, 0xce, 0x3f, 0xbc, 0x56, 0xb1, 0xc0, 0x3d, 0xb0, 0x3f, 0xd9, 0xbd,
  0x39, 0x3f, 0x8a, 0x3d, 0xe8, 0xbb, 0x45, 0xbd, 0x6a, 0x31, 0xeb, 0x3c,
  0x84, 0xc1, 0x43, 0x3e, 0x96, 0xd9, 0xd3, 0x3d, 0x3d, 0x6c, 0xc2, 0x3d,
  0xec, 0x08, 0x4c, 0x3d, 0x12, 0x18, 0x1d, 0x3e, 0x21, 0xd7, 0xcb, 0xbb,
  0x87, 0x91, 0x01, 0xbe, 0x48, 0x23, 0x49, 0x3e, 0x63, 0x74, 0x8e, 0x3b,
  0x12, 0x22, 0xc3, 0x3d, 0x31, 0xcd, 0x40, 0x3e, 0x5a, 0x3d, 0xa0, 0xbc,
  0x95, 0xcd, 0xcc, 0x3d, 0xa3, 0xae, 0x49, 0xbd, 0xdf, 0xab, 0xc8, 0x3d,
  0x96, 0xfb, 0x94, 0xbd, 0x6d, 0x29, 0x33, 0x3e, 0x80, 0xfa, 0x10, 0xbc,
  0x2d, 0xa9, 0x51, 0xbe, 0x9d, 0xfb, 0x4e, 0x3c, 0x71, 0x69, 0x1b, 0x3e,
  0x61, 0x18, 0xd6, 0xbd, 0xd2, 0x0a, 0xde, 0x3d, 0x8c, 0x07, 0x75, 0x3c,
  0x60, 0x01, 0x4f, 0xbe, 0xab, 0x89, 0x1e, 0x3d, 0x33, 0xd8, 0x47, 0x3e,
  0xad, 0x77, 0x84, 0xbc, 0xca, 0xc9, 0xf9, 0xbd, 0x7b, 0xa1, 0x7a, 0x3e,
  0xf9, 0x9d, 0xba, 0x3d, 0x26, 0xde, 0xff, 0xff, 0x10, 0x00, 0x00, 0x00,
  0x0a, 0x00, 0x00, 0x00, 0x1c, 0x00, 0x00, 0x00, 0x38, 0x00, 0x00, 0x00,
  0x04, 0x00, 0x00, 0x00, 0x10, 0x00, 0x00, 0x00, 0x04, 0x00, 0x00, 0x00,
  0x01, 0x00, 0x00, 0x00, 0x08, 0x00, 0x00, 0x00, 0x1a, 0x00, 0x00, 0x00,
  0x73, 0x65, 0x71, 0x75, 0x65, 0x6e, 0x74, 0x69, 0x61, 0x6c, 0x2f, 0x63,
  0x6f, 0x6e, 0x76, 0x32, 0x64, 0x5f, 0x31, 0x2f, 0x43, 0x6f, 0x6e, 0x76,
  0x32, 0x44, 0x00, 0x00, 0x9c, 0xdd, 0xff, 0xff, 0xa6, 0xde, 0xff, 0xff,
  0x04, 0x00, 0x00, 0x00, 0x80, 0x01, 0x00, 0x00, 0x05, 0x9b, 0x58, 0xbe,
  0x9e, 0x33, 0x7c, 0x3d, 0xbf, 0xc7, 0x61, 0xbe, 0x72, 0x59, 0xb7, 0x3c,
  0x9a, 0x97, 0x14, 0xbd, 0x19, 0x98, 0xa5, 0xbd, 0xd5, 0x68, 0x3c, 0xbe,
  0xdb, 0xc7, 0xb5, 0x3c, 0x37, 0x3c, 0x8b, 0x3c, 0xce, 0xa9, 0xc7, 0xbd,
  0x3a, 0x60, 0xfb, 0x3d, 0x61, 0x52, 0x83, 0x3d, 0x9a, 0x5e, 0xba, 0xbd,
  0x75, 0x32, 0x31, 0x3e, 0xef, 0x6f, 0x7b, 0xbd, 0x8e, 0xf6, 0xc5, 0xbc,
  0xff, 0x8c, 0x46, 0x3e, 0x90, 0x31, 0xd2, 0x3d, 0x22, 0x42, 0x02, 0xbe,
  0xf2, 0x4d, 0xd3, 0xbd, 0x3c, 0x9e, 0x86, 0xbd, 0x2c, 0x2c, 0xf9, 0xbd,
  0x08, 0xeb, 0x0f, 0x3e, 0x17, 0xbd, 0xdc, 0xbd, 0x92, 0xfa, 0x60, 0x3e,
  0x1b, 0xbe, 0x85, 0xbd, 0xf3, 0xb7, 0x38, 0xbe, 0x80, 0x84, 0x24, 0x3e,
  0xb5, 0xf4, 0x9e, 0x3d, 0x73, 0x0d, 0xc3, 0xbc, 0xc7, 0x85, 0x07, 0x3e,
  0xe3, 0x0a, 0x47, 0xbe, 0x72, 0x3e, 0x05, 0xb8, 0x0f, 0xa0, 0x1e, 0xbe,
  0x30, 0xd8, 0x34, 0x3e, 0xca, 0xc8, 0x48, 0x3e, 0xff, 0xa7, 0x30, 0xbb,
  0x77, 0x7e, 0x9f, 0x3d, 0x4e, 0xc2, 0x13, 0xbd, 0xa7, 0x90, 0x87, 0x3d,
  0x74, 0xfa, 0x9c, 0x3d, 0x72, 0xab, 0x30, 0xbe, 0x7e, 0x6f, 0x1e, 0xbe,
  0xfb, 0xb9, 0xa0, 0xbd, 0x82, 0x92, 0xff, 0xbd, 0x54, 0x20, 0x71, 0x3e,
  0xe4, 0x62, 0x0d, 0x3e, 0xf5, 0xd7, 0x39, 0x3e, 0xaa, 0x04, 0x12, 0xbe,
  0x80, 0xef, 0xee, 0x3d, 0x6c, 0xfb, 0xc8, 0xbd, 0x02, 0x2f, 0x66, 0x3e,
  0x02, 0x22, 0x1f, 0xbe, 0xfe, 0x6d, 0x55, 0xbd, 0xfb, 0x5d, 0x8d, 0xbd,
  0xf5, 0x6e, 0x2d, 0x3d, 0x89, 0x0e, 0xba, 0x3d, 0x36, 0x1e, 0x4e, 0xbe,
  0xbe, 0x42, 0x2b, 0xbc, 0xa5, 0x43, 0xf2, 0xbd, 0x0e, 0xcf, 0x4b, 0xbd,
  0x1a, 0x2b, 0xb6, 0x3d, 0x6d, 0xf2, 0x65, 0x3e, 0xaf, 0xc8, 0x17, 0xbd,
  0xd4, 0xf9, 0x80, 0xbd, 0x07, 0x38, 0x3c, 0xbe, 0xe0, 0x14, 0x5d, 0xbe,
  0xda, 0x32, 0x69, 0x3d, 0x6d, 0xbf, 0x6f, 0x3e, 0x5c, 0xf5, 0x66, 0x3e,
  0x26, 0x78, 0x09, 0x3c, 0xa9, 0x07, 0x1c, 0xbe, 0x59, 0xc8, 0x32, 0x3e,
  0x42, 0x9d, 0xfa, 0xbd, 0xdb, 0xe7, 0x1b, 0xbd, 0x32, 0xe7, 0x0a, 0xbe,
  0x6e, 0x5d, 0x4d, 0x3e, 0xf4, 0x06, 0x5b, 0xbe, 0x98, 0xa2, 0x57, 0xbd,
  0xd3, 0x5a, 0x40, 0x3e, 0xa4, 0x51, 0x0b, 0x3e, 0x1e, 0x0f, 0xad, 0x3d,
  0x3c, 0x03, 0x0d, 0xbe, 0xeb, 0xfb, 0x86, 0x3e, 0x3a, 0xfe, 0x24, 0x3e,
  0xea, 0x78, 0x07, 0xbe, 0xfd, 0x14, 0x5c, 0xba, 0x24, 0xbb, 0x78, 0x3e,
  0xea, 0x6b, 0x40, 0xbe, 0xb0, 0x89, 0x3d, 0xbe, 0x41, 0x73, 0x49, 0xbe,
  0xf9, 0xa1, 0x6f, 0xbe, 0xd7, 0x99, 0xbd, 0x3d, 0x69, 0x11, 0x6c, 0xbe,
  0xea, 0x56, 0x8a, 0xbd, 0x85, 0x6f, 0x89, 0xbd, 0xfe, 0xdf, 0xff, 0xff,
  0x10, 0x00, 0x00, 0x00, 0x09, 0x00, 0x00, 0x00, 0x1c, 0x00, 0x00, 0x00,
  0x38, 0x00, 0x00, 0x00, 0x04, 0x00, 0x00, 0x00, 0x08, 0x00, 0x00, 0x00,
  0x04, 0x00, 0x00, 0x00, 0x03, 0x00, 0x00, 0x00, 0x01, 0x00, 0x00, 0x00,
  0x18, 0x00, 0x00, 0x00, 0x73, 0x65, 0x71, 0x75, 0x65, 0x6e, 0x74, 0x69,
  0x61, 0x6c, 0x2f, 0x63, 0x6f, 0x6e, 0x76, 0x32, 0x64, 0x2f, 0x43, 0x6f,
  0x6e, 0x76, 0x32, 0x44, 0x00, 0x00, 0x00, 0x00, 0x74, 0xdf, 0xff, 0xff,
  0x7e, 0xe0, 0xff, 0xff, 0x04, 0x00, 0x00, 0x00, 0xc0, 0x00, 0x00, 0x00,
  0x12, 0x1f, 0x1b, 0xbe, 0x89, 0x08, 0xb0, 0x3d, 0x55, 0x61, 0xde, 0xbe,
  0x27, 0x82, 0x2c, 0xbe, 0x9a, 0xff, 0x90, 0x3e, 0x4e, 0xdf, 0x08, 0x3e,
  0x35, 0x4d, 0x11, 0x3d, 0x1c, 0x42, 0x88, 0xbd, 0x55, 0x46, 0xb5, 0x3e,
  0xb3, 0x14, 0x06, 0x3f, 0x98, 0x13, 0x88, 0xbe, 0x75, 0x23, 0x96, 0x3c,
  0x48, 0x21, 0xa6, 0xbe, 0xd7, 0x0f, 0x0b, 0xbf, 0x49, 0x36, 0x3a, 0x3e,
  0xcd, 0x5f, 0x4e, 0xbe, 0x66, 0x20, 0x88, 0x3e, 0x68, 0xd0, 0x0b, 0x3f,
  0x54, 0xbb, 0xce, 0xbe, 0x55, 0x64, 0xc6, 0x3c, 0x95, 0x91, 0x00, 0x3f,
  0x20, 0xeb, 0x2e, 0xbe, 0x61, 0x4e, 0x75, 0x3c, 0xe8, 0xfa, 0x4c, 0x3e,
  0xf9, 0x60, 0xf8, 0xbd, 0x29, 0x49, 0xe3, 0xbe, 0xfc, 0x16, 0x0b, 0xbf,
  0xa2, 0x5b, 0x0a, 0x3e, 0xf7, 0x6e, 0xe3, 0xbe, 0x2e, 0xcb, 0xd5, 0xbd,
  0x9d, 0x95, 0x8c, 0xbe, 0x9a, 0x09, 0x27, 0xbe, 0x3e, 0x89, 0x00, 0xbf,
  0xd2, 0x0b, 0xd2, 0x3d, 0x09, 0xd0, 0xf9, 0xbe, 0x6c, 0x92, 0xc8, 0x3e,
  0x86, 0x16, 0x6a, 0xbe, 0x91, 0x7b, 0x73, 0x3e, 0xfc, 0x37, 0xac, 0xbd,
  0x2e, 0x12, 0xf0, 0xbd, 0xa3, 0x37, 0xd0, 0xbe, 0xf6, 0x92, 0x85, 0x3a,
  0x2b, 0x44, 0x61, 0x3d, 0x5a, 0xa4, 0x03, 0xbf, 0xc5, 0xea, 0x20, 0x3e,
  0x9d, 0x6c, 0x03, 0x3e, 0x77, 0x9b, 0x0a, 0xbe, 0x59, 0xe8, 0xd1, 0xbe,
  0x16, 0xe1, 0xff, 0xff, 0x10, 0x00, 0x00, 0x00, 0x08, 0x00, 0x00, 0x00,
  0x14, 0x00, 0x00, 0x00, 0x30, 0x00, 0x00, 0x00, 0x02, 0x00, 0x00, 0x00,
  0x03, 0x00, 0x00, 0x00, 0x10, 0x00, 0x00, 0x00, 0x19, 0x00, 0x00, 0x00,
  0x73, 0x65, 0x71, 0x75, 0x65, 0x6e, 0x74, 0x69, 0x61, 0x6c, 0x2f, 0x64,
  0x65, 0x6e, 0x73, 0x65, 0x5f, 0x31, 0x2f, 0x4d, 0x61, 0x74, 0x4d, 0x75,
  0x6c, 0x00, 0x00, 0x00, 0x84, 0xe0, 0xff, 0xff, 0x8e, 0xe1, 0xff, 0xff,
  0x04, 0x00, 0x00, 0x00, 0x00, 0x1c, 0x00, 0x00, 0xb6, 0x30, 0x8f, 0x3d,
  0xca, 0x58, 0x46, 0xbe, 0x80, 0x12, 0xb0, 0xbb, 0x3a, 0x8a, 0x81, 0xbd,
  0xd6, 0x25, 0xad, 0x3d, 0x0a, 0x8a, 0x1f, 0xbe, 0xac, 0x25, 0xba, 0xbd,
  0xc6, 0x2e, 0xbf, 0xbd, 0x80, 0x0f, 0xe5, 0xbb, 0xb8, 0x4e, 0xa8, 0x3c,
  0x6e, 0x84, 0x15, 0xbe, 0x99, 0x4d, 0x0a, 0x3e, 0xd7, 0x09, 0x26, 0xbe,
  0x08, 0x1e, 0xbb, 0x3c, 0x40, 0xb9, 0x51, 0xbb, 0x2f, 0x95, 0x18, 0x3e,
  0x58, 0x57, 0x44, 0xbe, 0x9a, 0x56, 0xbd, 0x3d, 0x7e, 0xaa, 0xf1, 0x3d,
  0x50, 0xe5, 0x4c, 0xbd, 0x8e, 0x55, 0x51, 0xbe, 0x87, 0xd6, 0x32, 0xbe,
  0xd4, 0xf6, 0x95, 0xbd, 0xed, 0x1a, 0x3f, 0xbe, 0x52, 0x7d, 0xc2, 0x3d,
  0x70, 0xe8, 0x69, 0x3c, 0x4b, 0x8b, 0x59, 0xbe, 0xaa, 0x8b, 0x50, 0xbe,
  0x05, 0x7c, 0x0f, 0x3e, 0x6e, 0xae, 0xd6, 0x3d, 0x5e, 0x86, 0x90, 0x3d,
  0x18, 0x09, 0x57, 0xbe, 0xf6, 0xc9, 0x30, 0xbe, 0x94, 0xae, 0x60, 0x3d,
  0x44, 0x34, 0x1a, 0xbe, 0xfd, 0x0b, 0x57, 0xbe, 0x60, 0xea, 0x8b, 0xbc,
  0x7c, 0x98, 0x36, 0x3d, 0xd9, 0xeb, 0x43, 0xbe, 0x80, 0x1b, 0x90, 0x3c,
  0xff, 0x46, 0x1d, 0xbe, 0x4e, 0x32, 0xb7, 0x3d, 0x5e, 0x64, 0x91, 0x3d,
  0x62, 0x2b, 0x33, 0xbe, 0x00, 0x95, 0xd9, 0x3a, 0x46, 0x83, 0xc8, 0x3d,
  0x23, 0xec, 0x20, 0x3e, 0xcc, 0x70, 0x93, 0xbd, 0xe2, 0x56, 0xb9, 0x3d,
  0x84, 0x8a, 0x24, 0xbe, 0x7f, 0xe8, 0x09, 0x3e, 0xa3, 0x16, 0xf3, 0xbd,
  0x22, 0x15, 0x1b, 0xbe, 0xa4, 0x70, 0xda, 0xbd, 0x8d, 0x2b, 0x53, 0xbe,
  0x1a, 0xd0, 0xb5, 0x3d, 0x9e, 0xd0, 0xe8, 0x3d, 0x88, 0x7a, 0xe1, 0xbc,
  0xa0, 0x19, 0x22, 0xbe, 0x20, 0xf6, 0x94, 0x3b, 0x96, 0x5c, 0xf1, 0xbd,
  0x84, 0x33, 0x77, 0x3d, 0xb4, 0x8a, 0x23, 0xbd, 0x53, 0x04, 0x2f, 0xbe,
  0xd5, 0xcd, 0xec, 0xbd, 0xc0, 0x21, 0xd0, 0xbd, 0x7e, 0x4e, 0xa1, 0x3d,
  0xf8, 0xaf, 0x67, 0xbd, 0x65, 0x0e, 0x3c, 0x3e, 0x26, 0x1e, 0x89, 0xbd,
  0x2c, 0x19, 0xb0, 0xbd, 0x58, 0x84, 0xf5, 0x3c, 0x22, 0x45, 0x9e, 0x3d,
  0xc1, 0x8d, 0x0e, 0x3e, 0x69, 0x89, 0x49, 0x3e, 0x72, 0xa5, 0x53, 0xbe,
  0x38, 0x6f, 0x66, 0xbd, 0x28, 0xd4, 0x0c, 0xbd, 0x63, 0x26, 0x5c, 0xbe,
  0x90, 0x26, 0x4f, 0xbe, 0x8e, 0xb4, 0x9d, 0x3d, 0x37, 0x6f, 0x13, 0x3e,
  0xe8, 0x65, 0xa4, 0xbc, 0x44, 0x41, 0x41, 0x3d, 0x89, 0x95, 0x2b, 0x3e,
  0x23, 0xe3, 0x08, 0x3e, 0xd3, 0xfc, 0x3b, 0x3e, 0x55, 0x17, 0x22, 0x3e,
  0x80, 0x94, 0xa0, 0x3a, 0x5a, 0x09, 0xb4, 0x3d, 0x84, 0xb9, 0x7d, 0x3d,
  0x99, 0x13, 0x19, 0x3e, 0x44, 0xcc, 0x1e, 0xbd, 0xc0, 0xbb, 0x98, 0x3b,
  0xd9, 0xf0, 0x30, 0x3e, 0x79, 0xb0, 0x06, 0x3e, 0xda, 0xd4, 0xbd, 0xbd,
  0x98, 0x45, 0x3e, 0xbd, 0xaa, 0x99, 0xde, 0x3d, 0xa8, 0xb6, 0x18, 0xbd,
  0x0d, 0x4a, 0x44, 0x3e, 0x40, 0x1d, 0xcc, 0x3c, 0x48, 0x74, 0xa3, 0xbc,
  0xd0, 0xcf, 0xc3, 0x3c, 0x22, 0x92, 0xa7, 0x3d, 0x3c, 0xe8, 0x1f, 0xbe,
  0x9a, 0x09, 0x9d, 0xbd, 0xff, 0xa8, 0x23, 0xbe, 0x04, 0x9e, 0x4e, 0xbe,
  0x47, 0xa3, 0x34, 0x3e, 0x80, 0x4a, 0xab, 0x3a, 0x88, 0x73, 0x04, 0xbe,
  0xd1, 0x82, 0x17, 0xbe, 0x5f, 0x12, 0x38, 0xbe, 0xb2, 0x93, 0xec, 0xbd,
  0x25, 0x91, 0x19, 0x3e, 0x2c, 0x20, 0x4a, 0x3e, 0x54, 0x83, 0x05, 0x3e,
  0x07, 0xf8, 0x51, 0x3c, 0x30, 0x9a, 0x85, 0x3d, 0x9a, 0x54, 0x2b, 0xbe,
  0xfc, 0x5c, 0x4e, 0xbe, 0xf6, 0x6a, 0x8f, 0x3d, 0xe2, 0x10, 0x49, 0xbb,
  0x06, 0x2e, 0x0c, 0x3e, 0xe4, 0x50, 0xe8, 0x3d, 0x4f, 0x70, 0xd9, 0xbc,
  0x5b, 0xe4, 0x16, 0x3e, 0xa4, 0x41, 0x86, 0x3d, 0x49, 0xe6, 0x29, 0x3d,
  0x8d, 0x3e, 0x5c, 0xbd, 0x77, 0xcb, 0x6c, 0x3d, 0x55, 0xa6, 0xe8, 0xbd,
  0x22, 0x4d, 0x8d, 0xbd, 0x50, 0xf8, 0x43, 0xbe, 0x06, 0xba, 0xfe, 0x3d,
  0x88, 0x8f, 0x61, 0xbe, 0x30, 0xd9, 0xc6, 0x3c, 0xe1, 0x09, 0x1f, 0xbd,
  0x3c, 0xe4, 0x90, 0x3d, 0x0c, 0x32, 0xee, 0x3d, 0xf6, 0x43, 0x69, 0xbe,
  0x0b, 0xd6, 0xc5, 0xbd, 0x7b, 0x55, 0x0e, 0x3e, 0x14, 0x49, 0x29, 0xbe,
  0x8c, 0x9e, 0xc2, 0x3d, 0x25, 0x73, 0x6a, 0x3d, 0xa6, 0xa7, 0x27, 0x3a,
  0xa2, 0x6a, 0xdc, 0xbd, 0x53, 0xbd, 0x58, 0xbc, 0x7a, 0x97, 0xd6, 0xbb,
  0xff, 0xb6, 0x2c, 0x3d, 0x9c, 0x07, 0xe1, 0xbd, 0xde, 0x05, 0x25, 0xbe,
  0xa3, 0xac, 0x58, 0xbe, 0x95, 0xed, 0x99, 0xbd, 0x1b, 0x56, 0x24, 0xbe,
  0x5f, 0x65, 0x4b, 0x3d, 0xdd, 0x39, 0x0f, 0xbd, 0x5e, 0xaf, 0xe9, 0xbd,
  0x53, 0x9a, 0x66, 0xbd, 0x3b, 0x29, 0x17, 0x3e, 0x9a, 0xac, 0x33, 0xbc,
  0xab, 0xa4, 0x75, 0xbd, 0xb4, 0x28, 0xc2, 0x3d, 0xc9, 0x5b, 0x95, 0xbd,
  0x07, 0x7b, 0x1d, 0xbd, 0x5f, 0xf5, 0x24, 0x3e, 0x8e, 0x83, 0xe8, 0xbd,
  0xc2, 0xf8, 0x36, 0xbe, 0x5d, 0xe6, 0xe4, 0xbd, 0x22, 0x6c, 0x42, 0xbe,
  0xc6, 0xcf, 0x50, 0x3d, 0x83, 0xb6, 0xc6, 0x3d, 0xee, 0x24, 0xd4, 0xbd,
  0x37, 0xf0, 0x3a, 0xbe, 0x5b, 0x7d, 0x8a, 0x3d, 0xe7, 0xb4, 0xc1, 0xbd,
  0x47, 0xcb, 0x73, 0xbe, 0x37, 0x64, 0x16, 0xbe, 0x0e, 0x5e, 0x46, 0x3d,
  0xb5, 0xf0, 0xe1, 0x3d, 0xd5, 0x0b, 0x04, 0x3e, 0x02, 0xd7, 0x92, 0xbd,
  0xb7, 0x00, 0x15, 0x3e, 0xaa, 0xdb, 0x85, 0x3c, 0xb4, 0x35, 0xb0, 0xbd,
  0x80, 0xfe, 0xd0, 0x3c, 0x2a, 0x2e, 0xcf, 0x3c, 0xc9, 0x72, 0xdf, 0x3d,
  0x43, 0xba, 0xa4, 0x3d, 0x57, 0x24, 0x46, 0x3b, 0x60, 0x93, 0x04, 0xbe,
  0xfb, 0xaf, 0x83, 0x3d, 0x6b, 0xae, 0x3d, 0x3e, 0x8d, 0x37, 0x11, 0x3e,
  0xc7, 0x2c, 0xb2, 0xbd, 0x67, 0xdd, 0x7a, 0xbd, 0x64, 0x48, 0xcc, 0x3b,
  0xa1, 0x6a, 0x21, 0xbe, 0x72, 0x78, 0xdf, 0x3d, 0x02, 0x89, 0xfd, 0xbd,
  0x0d, 0xc1, 0x34, 0x3e, 0xa3, 0x3d, 0x0d, 0xbd, 0x93, 0xe8, 0x5e, 0xbe,
  0x43, 0x11, 0x95, 0xbc, 0xb3, 0x99, 0x4e, 0x3e, 0x54, 0x58, 0x63, 0xbe,
  0x73, 0x09, 0x49, 0xbe, 0x12, 0x4f, 0x12, 0x3e, 0xec, 0x73, 0x0a, 0x3d,
  0x42, 0xc8, 0x3d, 0xbe, 0xfd, 0x0d, 0xc1, 0xbd, 0x0e, 0xfe, 0x31, 0x3d,
  0xb4, 0xe8, 0xae, 0x3d, 0xd6, 0x92, 0x5e, 0xbe, 0xf2, 0x77, 0x0c, 0xbe,
  0xb2, 0xd4, 0x0c, 0xbd, 0x30, 0x9e, 0xc0, 0x3d, 0x5c, 0x76, 0x11, 0xbd,
  0xa1, 0xa3, 0xb6, 0xbd, 0xfd, 0x0d, 0x2e, 0x3d, 0xc6, 0x6e, 0xe7, 0xbd,
  0x62, 0x09, 0x16, 0x3e, 0xc7, 0x54, 0x9c, 0x3d, 0x2c, 0xed, 0x23, 0x3e,
  0x38, 0x16, 0x06, 0x3e, 0x13, 0x02, 0x86, 0xbd, 0xc9, 0xcf, 0x5b, 0xbd,
  0x83, 0xcc, 0x8f, 0x3d, 0xd6, 0xcc, 0xce, 0xbd, 0x48, 0x2a, 0x14, 0x3e,
  0xdb, 0xac, 0x8a, 0xbe, 0x70, 0x59, 0x16, 0x3e, 0x93, 0x11, 0xd2, 0x3d,
  0xe2, 0x83, 0x1d, 0x3e, 0xc8, 0xa5, 0x1a, 0xbe, 0x36, 0xbf, 0xfd, 0xbd,
  0x46, 0xb7, 0x31, 0x3e, 0x03, 0xad, 0x91, 0x3c, 0x59, 0x30, 0x1c, 0xbe,
  0x14, 0x45, 0x34, 0xbe, 0x61, 0x8a, 0xca, 0x3d, 0x0b, 0xfb, 0xd0, 0x3d,
  0xaa, 0x09, 0xdc, 0xbd, 0x71, 0xc1, 0x56, 0x3d, 0xc2, 0x85, 0xa4, 0x3d,
  0x66, 0xdd, 0xa0, 0x3d, 0xfe, 0x59, 0x14, 0x3e, 0xc8, 0xf6, 0x9d, 0x3b,
  0x34, 0xd4, 0x26, 0x3e, 0x35, 0x96, 0x0d, 0xbe, 0x74, 0x59, 0x35, 0x3e,
  0x94, 0x02, 0x07, 0x3e, 0xaa, 0xd5, 0x00, 0xbd, 0x3a, 0x8c, 0x22, 0xbe,
  0x78, 0x35, 0x2b, 0xbe, 0xca, 0x54, 0x22, 0x3e, 0xc7, 0xf1, 0xd7, 0xbd,
  0xce, 0xa1, 0x1d, 0xbe, 0xfa, 0x34, 0xc7, 0xbd, 0x49, 0xd6, 0x3f, 0xbd,
  0xaf, 0x50, 0xab, 0xbc, 0xa6, 0xab, 0x8f, 0x3d, 0xed, 0x1e, 0x15, 0x3e,
  0xb3, 0x17, 0x5a, 0xbe, 0xbc, 0xf9, 0x3a, 0xbe, 0xd6, 0x5b, 0x17, 0xbd,
  0x6c, 0xa4, 0x08, 0x3d, 0xf6, 0x48, 0x92, 0x3d, 0xf0, 0xfc, 0x95, 0x3d,
  0x55, 0x99, 0xc2, 0x3c, 0xe2, 0xe5, 0x29, 0x3c, 0xfa, 0x95, 0xc9, 0xbd,
  0x4e, 0x6c, 0xe2, 0xbc, 0xb8, 0x14, 0x08, 0xbe, 0x63, 0xd9, 0xf6, 0xbd,
  0x51, 0xf1, 0x20, 0x3c, 0x4e, 0xcb, 0x06, 0xbe, 0xc5, 0x7b, 0x44, 0xbe,
  0x5a, 0x9a, 0xd4, 0xbd, 0x49, 0xe3, 0x50, 0x3e, 0x20, 0x33, 0xb3, 0x3d,
  0x2e, 0x6a, 0xa2, 0x3d, 0x46, 0x31, 0xa4, 0x3d, 0x8e, 0xdf, 0x28, 0xbd,
  0x17, 0x86, 0xb6, 0x3d, 0xa3, 0x20, 0x36, 0xbe, 0x7f, 0xe6, 0x42, 0x3d,
  0x93, 0x88, 0x38, 0xbe, 0xc1, 0xce, 0xfd, 0xbc, 0x51, 0x93, 0x61, 0xbe,
  0xa5, 0xe8, 0x59, 0xbe, 0x00, 0xc6, 0x9f, 0xbd, 0xf3, 0x01, 0x53, 0xbd,
  0x7d, 0x02, 0x0f, 0xbe, 0x52, 0x08, 0x22, 0xbd, 0xed, 0xce, 0x23, 0x3e,
  0x07, 0x91, 0x10, 0xbe, 0x09, 0x97, 0x3d, 0x3e, 0xbd, 0xfb, 0x21, 0x3b,
  0xf3, 0x22, 0x3e, 0xbd, 0xf9, 0x12, 0x4e, 0x3e, 0x76, 0xe9, 0xb6, 0xbb,
  0x7e, 0x95, 0x88, 0xbd, 0x72, 0x32, 0x32, 0xbe, 0x54, 0x71, 0x9f, 0x3b,
  0x84, 0xcf, 0x9e, 0xbc, 0x82, 0xf2, 0xfd, 0xbb, 0xc3, 0xc6, 0x27, 0x3e,
  0x9e, 0xc8, 0xe8, 0x3d, 0x53, 0x51, 0x29, 0xbe, 0x51, 0x63, 0x12, 0xbe,
  0x83, 0x4c, 0x2b, 0xbe, 0xc2, 0x98, 0x9e, 0x3c, 0xc7, 0xd6, 0x3b, 0xbe,
  0x22, 0x6f, 0xc0, 0x3d, 0xcf, 0xce, 0xde, 0x3d, 0xac, 0xef, 0xb4, 0xbd,
  0x09, 0x23, 0x3c, 0xbe, 0xc6, 0x8b, 0x69, 0xbe, 0x17, 0x74, 0xce, 0xbb,
  0xed, 0xbf, 0xa6, 0x3d, 0x13, 0x47, 0x28, 0x3e, 0xe9, 0xd2, 0x83, 0x3b,
  0x55, 0x78, 0xa4, 0x3d, 0x88, 0x9c, 0x3c, 0xbe, 0x51, 0x7b, 0x0b, 0xbe,
  0x37, 0x27, 0x05, 0xbd, 0x59, 0x4b, 0x15, 0xbe, 0xed, 0xc3, 0x10, 0xbe,
  0x04, 0xbd, 0xa7, 0xbd, 0x40, 0xc9, 0x21, 0xbe, 0xc3, 0x4c, 0xc7, 0xbc,
  0x0e, 0x0b, 0xff, 0x3c, 0x9d, 0xcb, 0xd2, 0xbc, 0xd3, 0xae, 0x12, 0xbd,
  0x4a, 0x54, 0xdb, 0xbd, 0x58, 0x53, 0x13, 0x3e, 0x5e, 0x5a, 0x9a, 0xbd,
  0xe0, 0xd4, 0x4f, 0x3e, 0x24, 0x60, 0x59, 0x3e, 0xdf, 0xcf, 0xb1, 0x3d,
  0x7f, 0xac, 0xbc, 0x3c, 0x30, 0x10, 0xfd, 0x3d, 0xd1, 0x44, 0x20, 0x3e,
  0xeb, 0x1e, 0x03, 0x3e, 0x7c, 0x4d, 0x87, 0x3d, 0x82, 0xb5, 0x55, 0x3d,
  0x04, 0x24, 0x95, 0x3d, 0xcf, 0x05, 0xc1, 0x3d, 0xe1, 0x04, 0x37, 0xbc,
  0x3e, 0xe6, 0xca, 0xbc, 0x84, 0x6c, 0x58, 0x3e, 0x2d, 0x63, 0x3e, 0x3e,
  0x45, 0xa5, 0x94, 0xbd, 0x19, 0x74, 0x54, 0x3e, 0x23, 0xfc, 0x20, 0x3e,
  0xa6, 0x5d, 0xe1, 0x3c, 0x03, 0xa1, 0xa9, 0x3c, 0x92, 0xf9, 0x1c, 0x3c,
  0x25, 0xd2, 0x47, 0xbe, 0x93, 0xbe, 0xd9, 0x3c, 0xd2, 0x4c, 0x8a, 0xbc,
  0x19, 0x88, 0x97, 0x3e, 0x10, 0x62, 0xed, 0x3d, 0xae, 0x04, 0x1e, 0xbe,
  0x67, 0x5e, 0xf0, 0x3c, 0x96, 0x58, 0x98, 0x3c, 0x1f, 0x97, 0xef, 0xbc,
  0xf6, 0x4d, 0x2c, 0x3e, 0x78, 0x16, 0x26, 0x3d, 0xd6, 0xf4, 0x4e, 0x3e,
  0xe3, 0x51, 0x23, 0x3e, 0x0e, 0x0d, 0x94, 0x3e, 0x47, 0x16, 0xee, 0xbb,
  0x80, 0x4b, 0x96, 0x3e, 0xe3, 0x0e, 0xbc, 0x3d, 0xce, 0xbd, 0xe9, 0x3c,
  0xf4, 0x66, 0xf2, 0x3d, 0x4b, 0x1e, 0xd5, 0xbd, 0xe4, 0x24, 0xfb, 0xbd,
  0x8b, 0x0e, 0x17, 0x3d, 0x8c, 0x69, 0x6e, 0x3e, 0x4e, 0x10, 0x14, 0x3e,
  0x8c, 0x94, 0x1b, 0x3e, 0x5b, 0xc1, 0xc4, 0xbd, 0x13, 0x39, 0xd2, 0x3c,
  0xf4, 0xd8, 0xb5, 0x3d, 0x1c, 0xe4, 0x6f, 0x3d, 0x13, 0x0f, 0xfd, 0xbc,
  0xcb, 0x80, 0x13, 0xbd, 0xce, 0x1d, 0x8e, 0x3d, 0xf9, 0xe2, 0x11, 0x3d,
  0x44, 0x05, 0xdb, 0xbd, 0xd2, 0x12, 0xfb, 0x3d, 0xd1, 0xa7, 0xa5, 0xbd,
  0x74, 0x7a, 0xa8, 0x3d, 0x75, 0x8f, 0x39, 0xbd, 0x90, 0x89, 0x47, 0x3d,
  0xd6, 0x1e, 0x85, 0x3d, 0x1e, 0x4b, 0x80, 0xbd, 0x4a, 0xa7, 0x25, 0xbe,
  0xe9, 0xec, 0x8b, 0x3e, 0x7a, 0xc1, 0xc6, 0xbd, 0x4f, 0x4c, 0xff, 0xbd,
  0xf6, 0xce, 0x69, 0x3d, 0xd4, 0x18, 0x56, 0x3d, 0x66, 0xfb, 0xe2, 0x3d,
  0xdd, 0x31, 0xe3, 0x3d, 0x55, 0x44, 0x75, 0x3d, 0xf5, 0xe9, 0x31, 0x3d,
  0xac, 0xd7, 0x32, 0xbd, 0xc9, 0xa8, 0x3c, 0x3e, 0xa9, 0x92, 0xca, 0x3d,
  0x3a, 0xa5, 0x6e, 0x3e, 0x05, 0xa3, 0x71, 0x3e, 0x3b, 0xb2, 0xad, 0x3d,
  0x64, 0xb0, 0x3a, 0x3e, 0x78, 0xe2, 0xcf, 0xbd, 0xe9, 0x4f, 0xd8, 0xbd,
  0x58, 0xba, 0x40, 0xbe, 0x06, 0xa2, 0xd3, 0x3d, 0xdb, 0x9c, 0x41, 0x3d,
  0xaf, 0x17, 0x44, 0x3e, 0x06, 0xbb, 0x1e, 0xbe, 0xfd, 0x0e, 0xb4, 0xbd,
  0x38, 0x4f, 0x74, 0xbd, 0xac, 0xa7, 0x6c, 0x3d, 0x3e, 0x4a, 0x42, 0x3c,
  0xd8, 0x3d, 0x8f, 0x3d, 0x39, 0x82, 0x0d, 0x3e, 0x69, 0x40, 0x07, 0x3e,
  0x84, 0x24, 0xfa, 0xbd, 0x63, 0x79, 0x04, 0x3c, 0xf6, 0x17, 0x42, 0x3d,
  0x05, 0x1e, 0xcc, 0xbd, 0x92, 0xe3, 0x1b, 0xbe, 0x24, 0x56, 0x41, 0xbd,
  0x7e, 0x10, 0x86, 0x3d, 0x4d, 0x00, 0x51, 0xbd, 0x25, 0x8b, 0xa0, 0x3d,
  0x42, 0xde, 0xa8, 0x3c, 0x87, 0x14, 0x4f, 0xbd, 0xb5, 0x8b, 0x28, 0xbd,
  0x32, 0xa6, 0xc2, 0x3d, 0x31, 0xa9, 0xc2, 0x3d, 0x9a, 0x6e, 0x83, 0x3d,
  0x47, 0x94, 0xe5, 0x3d, 0x88, 0x0c, 0x4b, 0xbd, 0xb7, 0xed, 0x4e, 0x3e,
  0xb7, 0xcc, 0x45, 0xbe, 0x96, 0x93, 0x5a, 0xbc, 0x47, 0xc3, 0x36, 0x3e,
  0x62, 0xbe, 0x0e, 0xbe, 0xcb, 0xf7, 0x3d, 0xbe, 0xc7, 0x96, 0x16, 0xbe,
  0x61, 0xd8, 0x1d, 0x3e, 0x34, 0x3e, 0x3b, 0xbe, 0x2c, 0x10, 0xd9, 0xbd,
  0xae, 0x2a, 0xac, 0x3b, 0x6c, 0xf8, 0x37, 0xbe, 0x7b, 0x59, 0x82, 0xbd,
  0xe0, 0x57, 0x3f, 0x3e, 0xdd, 0x2b, 0x10, 0xbe, 0x90, 0x65, 0xf7, 0x3d,
  0xaf, 0x40, 0x4d, 0xbe, 0x0e, 0x4a, 0x39, 0x3e, 0x64, 0x0f, 0x02, 0xbe,
  0x70, 0x40, 0xe5, 0x3d, 0x9b, 0x2f, 0xc8, 0xbd, 0x6d, 0x4e, 0x14, 0x3e,
  0x18, 0x2b, 0xbf, 0x3b, 0x85, 0x65, 0x1a, 0xbe, 0x30, 0x9f, 0x8a, 0xbd,
  0xde, 0x69, 0x04, 0x3e, 0xae, 0x81, 0x4d, 0x3e, 0x1c, 0x8d, 0x3e, 0xbd,
  0x83, 0x5a, 0xba, 0x3d, 0x2c, 0xb4, 0x38, 0xbe, 0xd8, 0x22, 0x5b, 0xbe,
  0x9e, 0x23, 0x69, 0xbc, 0x0e, 0x09, 0x31, 0xbb, 0xcb, 0x92, 0x5a, 0xbe,
  0x34, 0x92, 0x9e, 0xbb, 0xaa, 0x53, 0x42, 0x3e, 0x42, 0x98, 0xe3, 0x3d,
  0x38, 0xa8, 0x2f, 0x3e, 0xd5, 0xb0, 0x18, 0x3e, 0xab, 0xfa, 0x22, 0xbe,
  0xae, 0x17, 0xf5, 0x3d, 0xb5, 0xbd, 0x67, 0xbe, 0x49, 0x51, 0xc1, 0x3c,
  0x11, 0xa2, 0xf8, 0x3d, 0xdc, 0xd6, 0x45, 0x3e, 0xe1, 0x7a, 0xcf, 0xbd,
  0x4a, 0xa7, 0xaa, 0xbd, 0x4f, 0x43, 0x1d, 0xbe, 0x15, 0x33, 0x47, 0x3e,
  0xae, 0xf8, 0x13, 0xbe, 0x05, 0x2a, 0xdd, 0xbd, 0xc6, 0x82, 0x1c, 0xbd,
  0xa5, 0xb8, 0x4e, 0x3e, 0xac, 0xdc, 0x97, 0x3d, 0xc0, 0xa1, 0xdb, 0xbd,
  0x92, 0x17, 0x17, 0xbc, 0x0c, 0x2d, 0x13, 0xbe, 0xf1, 0x55, 0x48, 0xbe,
  0x94, 0xd3, 0x0e, 0x3e, 0xf1, 0xda, 0xb5, 0x3d, 0x11, 0x41, 0xf5, 0xbd,
  0xc3, 0x7b, 0x44, 0x3d, 0xcd, 0x98, 0x70, 0xbe, 0xbb, 0x80, 0x09, 0xbc,
  0x6e, 0x85, 0xec, 0x3c, 0x84, 0x14, 0x60, 0xbe, 0x1b, 0xd0, 0xc3, 0xbd,
  0x45, 0xb9, 0x5c, 0xbe, 0x72, 0xfa, 0xce, 0x3c, 0x8c, 0x6a, 0x5e, 0xbe,
  0xc0, 0x50, 0xb3, 0x3c, 0x85, 0xcc, 0xd0, 0xbd, 0x03, 0xee, 0x1a, 0xbe,
  0x83, 0x6b, 0xa6, 0x3b, 0x7e, 0xe0, 0xea, 0xbd, 0xde, 0xf6, 0xf0, 0xbd,
  0x5a, 0xdc, 0x13, 0xbe, 0x7c, 0xda, 0x07, 0x3d, 0x21, 0x9f, 0xa6, 0xbd,
  0xb8, 0xed, 0x48, 0xbe, 0x0c, 0x61, 0xbd, 0x3d, 0x0c, 0xba, 0x7a, 0xbc,
  0x77, 0x69, 0x91, 0x3d, 0x4a, 0xc6, 0x73, 0x3d, 0xf1, 0x7f, 0x1c, 0xbd,
  0x55, 0x7c, 0x21, 0x3d, 0x63, 0xa8, 0x5d, 0xbe, 0x25, 0xf2, 0x18, 0xbe,
  0x7e, 0xd6, 0x06, 0x3e, 0xdd, 0x46, 0x5c, 0xbc, 0xb3, 0x30, 0xe0, 0xbc,
  0x21, 0x6c, 0x4f, 0x3d, 0xb7, 0xf8, 0x1a, 0x3e, 0x05, 0x40, 0xe2, 0x3d,
  0xd1, 0xd2, 0x56, 0xbe, 0x6b, 0x6c, 0x12, 0x3e, 0x35, 0x8a, 0x37, 0x3e,
  0xf3, 0x8f, 0x44, 0x3e, 0x55, 0xfe, 0x1c, 0x3e, 0xee, 0x97, 0x33, 0xbe,
  0x83, 0xb7, 0x0a, 0xbe, 0x9a, 0x6b, 0x1c, 0xbe, 0x10, 0xa3, 0xf8, 0xbd,
  0xeb, 0xe1, 0xe4, 0xbd, 0xd7, 0x69, 0x01, 0xbe, 0xfb, 0xda, 0x1e, 0xbd,
  0xff, 0x0b, 0xb1, 0x3d, 0xf4, 0x47, 0x3a, 0x3e, 0xc1, 0x79, 0x19, 0xbe,
  0x1d, 0xbd, 0x00, 0x3e, 0x17, 0xc6, 0xc5, 0xbd, 0xd9, 0x8c, 0x14, 0xbe,
  0x05, 0x45, 0x1d, 0xbc, 0x69, 0xd5, 0xcc, 0x3c, 0x24, 0x52, 0x79, 0xbd,
  0x77, 0xb0, 0x1a, 0x3e, 0x7b, 0xea, 0x95, 0x3d, 0x9b, 0x76, 0x2f, 0xbe,
  0xf6, 0x52, 0x23, 0xbc, 0x9b, 0x05, 0x2a, 0x3c, 0xc8, 0xe1, 0x0b, 0xbe,
  0x3f, 0x5b, 0x58, 0x3d, 0x0c, 0x23, 0xe3, 0x3d, 0xa2, 0x7e, 0x68, 0x3e,
  0x3c, 0x72, 0x06, 0x3e, 0xfa, 0xdb, 0x13, 0xbe, 0xd6, 0xc2, 0x53, 0x3e,
  0x49, 0x3b, 0xdd, 0x3d, 0x0a, 0xcc, 0x10, 0x3e, 0xfd, 0x17, 0xe6, 0x3d,
  0x6f, 0x06, 0x8d, 0x3d, 0xff, 0x9a, 0xff, 0xbd, 0x7d, 0xa7, 0x3d, 0x3e,
  0xd4, 0x7f, 0x16, 0xbe, 0xc9, 0x40, 0x42, 0x3d, 0x9b, 0x9e, 0x35, 0xbe,
  0xf3, 0x98, 0xe0, 0x3d, 0x15, 0xf0, 0x3a, 0xbe, 0x1c, 0xc6, 0x0b, 0x3e,
  0x44, 0x82, 0x33, 0xba, 0x29, 0xe3, 0x46, 0xbb, 0x37, 0x72, 0x3e, 0xbd,
  0x6d, 0xea, 0xeb, 0xbd, 0x41, 0x0e, 0x6d, 0x3d, 0x56, 0xb2, 0x6e, 0x3e,
  0xb7, 0x55, 0x40, 0x3e, 0xe1, 0x97, 0xcd, 0x3c, 0x6a, 0xbd, 0x93, 0xbd,
  0x1a, 0x84, 0x08, 0xbd, 0x79, 0x08, 0x26, 0xbc, 0xb5, 0x82, 0xcc, 0xbb,
  0x30, 0xe3, 0x44, 0x3d, 0x08, 0x51, 0x1e, 0xbe, 0x8f, 0xfa, 0xe3, 0xbd,
  0x50, 0xaf, 0x33, 0xbe, 0xfb, 0xad, 0x30, 0xbe, 0x6e, 0x41, 0x45, 0x3d,
  0x55, 0x39, 0x78, 0x3e, 0x53, 0x5b, 0x01, 0x3e, 0xed, 0xe8, 0x7c, 0xbc,
  0x44, 0xdc, 0x23, 0x3c, 0x7e, 0x73, 0x08, 0xbd, 0xc6, 0xb3, 0x85, 0xbd,
  0x47, 0xdb, 0x09, 0x3d, 0x2e, 0x5a, 0x81, 0x3d, 0x27, 0xe3, 0x5a, 0x3e,
  0xd4, 0x14, 0x31, 0x3e, 0x0b, 0x2c, 0xcc, 0x3d, 0x04, 0x73, 0x0c, 0xbd,
  0x37, 0x14, 0x65, 0x3e, 0xc4, 0xe1, 0xd3, 0xbd, 0x05, 0x08, 0x46, 0x3d,
  0xa9, 0x4a, 0xdb, 0xbd, 0xda, 0x7e, 0x73, 0x3e, 0xe5, 0x17, 0xee, 0x3c,
  0x2d, 0x6b, 0x8a, 0x3e, 0x38, 0x58, 0xe8, 0xbd, 0x14, 0xa7, 0x19, 0x3e,
  0xa9, 0x81, 0xb3, 0xbc, 0x69, 0x2f, 0x16, 0xbc, 0x88, 0xfe, 0x6f, 0x3e,
  0xba, 0xfe, 0xe0, 0x3b, 0x77, 0x94, 0x8f, 0x3c, 0x9c, 0x5a, 0xe6, 0x3d,
  0x76, 0x3e, 0x14, 0xbe, 0xdb, 0xeb, 0x1a, 0x3d, 0xa9, 0x7e, 0x35, 0x3e,
  0xe1, 0x51, 0x7c, 0xbd, 0x0c, 0x5b, 0x1f, 0x3d, 0x3c, 0xb0, 0x51, 0x3e,
  0xb8, 0x51, 0x20, 0xbe, 0x5d, 0x6c, 0xa7, 0x3e, 0x4c, 0xef, 0xda, 0x3d,
  0xa0, 0x3f, 0x89, 0x3e, 0x5a, 0x55, 0xa5, 0x3d, 0x6c, 0x71, 0x0f, 0xbd,
  0x46, 0xa9, 0x12, 0xbe, 0x8e, 0x41, 0xc6, 0xbc, 0x96, 0x93, 0x25, 0xbe,
  0x74, 0x43, 0xbe, 0x3d, 0x2f, 0x1a, 0x92, 0xbd, 0xc9, 0x03, 0x1f, 0x3d,
  0xa4, 0x6f, 0xf0, 0xbd, 0xb3, 0xfa, 0x46, 0x3e, 0xa5, 0x87, 0xc9, 0x3c,
  0xdb, 0x5b, 0x89, 0x3e, 0xa2, 0x07, 0xb1, 0x3d, 0x3f, 0xc3, 0x19, 0x3e,
  0xa1, 0xd3, 0x0f, 0x3d, 0x5b, 0xcf, 0xf7, 0xbd, 0x4c, 0x21, 0x7f, 0xbd,
  0x04, 0xb8, 0xec, 0xbc, 0xff, 0xe5, 0xe5, 0x3d, 0x56, 0xff, 0x93, 0xbd,
  0x6f, 0x10, 0xa5, 0xbd, 0x8d, 0xa3, 0xfb, 0x3d, 0xd1, 0x31, 0x63, 0x3e,
  0x7e, 0xe8, 0xb5, 0xbd, 0x50, 0x7d, 0x0b, 0x3c, 0x85, 0x1f, 0x17, 0x3e,
  0xc7, 0xf1, 0x18, 0xbe, 0x1e, 0xd8, 0x3b, 0x3e, 0x0c, 0x26, 0xc9, 0xbd,
  0xe7, 0x67, 0xea, 0xbd, 0x0a, 0x00, 0x43, 0xbe, 0xbe, 0xd9, 0x97, 0xbd,
  0x0b, 0x22, 0xdf, 0x3d, 0x2e, 0x12, 0x67, 0xbe, 0x0c, 0x8e, 0x0a, 0x3e,
  0x96, 0x43, 0x60, 0xbe, 0x93, 0xfb, 0x8e, 0x3d, 0x84, 0x4c, 0xce, 0xbd,
  0x9b, 0xc6, 0x7a, 0x3d, 0x5d, 0x0a, 0xd1, 0x3d, 0x6c, 0xcd, 0xc3, 0x3d,
  0x90, 0x0e, 0x55, 0xbe, 0xc8, 0xcd, 0xd4, 0x3d, 0x5d, 0x0c, 0x4d, 0x3d,
  0xf2, 0x6b, 0x8e, 0xbe, 0x7b, 0xad, 0x91, 0xbd, 0x29, 0x43, 0xef, 0x3d,
  0xdb, 0x69, 0x92, 0xbd, 0x0e, 0xcb, 0xe4, 0x3d, 0x5c, 0x7d, 0xdd, 0x3d,
  0xd0, 0x88, 0xa9, 0x3d, 0xb9, 0xb8, 0x3f, 0xbe, 0x34, 0x9d, 0xe9, 0xbd,
  0xb7, 0x72, 0x14, 0x3d, 0xd4, 0xf2, 0x36, 0xbe, 0xf1, 0x26, 0x08, 0x3e,
  0xdd, 0x19, 0x04, 0x3c, 0x04, 0xe3, 0xa1, 0x3d, 0xd5, 0xf1, 0x03, 0x3e,
  0x08, 0xd6, 0x80, 0xbe, 0xb1, 0xc8, 0x43, 0xbe, 0xb6, 0x09, 0x46, 0x3e,
  0x50, 0x4b, 0xdc, 0x3d, 0x39, 0x8d, 0xd9, 0xbc, 0x85, 0x1a, 0x47, 0xbe,
  0x98, 0x48, 0x67, 0xbe, 0xed, 0x34, 0x9a, 0x3d, 0x2b, 0xc9, 0xc3, 0xbd,
  0x6b, 0x8e, 0x48, 0xbe, 0x7a, 0x3c, 0x48, 0xbe, 0xc0, 0x3f, 0x48, 0xbd,
  0x78, 0xe6, 0x01, 0xbc, 0x5f, 0xa5, 0x24, 0xbe, 0x34, 0x51, 0xb3, 0x3d,
  0x20, 0xe3, 0x4b, 0xbe, 0xe8, 0x41, 0xaf, 0xbd, 0x19, 0x83, 0x5f, 0xbd,
  0x64, 0x48, 0x45, 0x3d, 0xba, 0x6d, 0xc0, 0x3c, 0xc7, 0xf9, 0x73, 0xbe,
  0x48, 0x27, 0x32, 0x3e, 0x33, 0xaf, 0x71, 0x3d, 0x33, 0x6f, 0x65, 0xbb,
  0x96, 0x90, 0x17, 0xbe, 0x6d, 0xa0, 0xe4, 0x3d, 0x16, 0xe7, 0x80, 0xbd,
  0x79, 0x83, 0x6e, 0xbe, 0xce, 0x3c, 0xf9, 0x3b, 0x79, 0xd8, 0x5e, 0xbe,
  0x4c, 0x26, 0x47, 0xbe, 0x8b, 0x8e, 0x4a, 0xbe, 0x90, 0x30, 0x6b, 0xbe,
  0xa4, 0x0a, 0x69, 0xbe, 0x59, 0x9c, 0x65, 0xbd, 0x51, 0x47, 0xe1, 0xbd,
  0xad, 0x22, 0x7a, 0xbe, 0x14, 0x4a, 0xa4, 0xbd, 0xd8, 0xab, 0x91, 0xbe,
  0x9c, 0x3e, 0x14, 0x3e, 0x9f, 0xce, 0xf5, 0x3d, 0x7a, 0x4e, 0x36, 0xba,
  0xa6, 0xa0, 0xee, 0xbd, 0x0d, 0x16, 0xbc, 0xbd, 0xaa, 0x64, 0x74, 0xbd,
  0xa0, 0x35, 0xb5, 0x3d, 0x7e, 0x22, 0x0a, 0xbe, 0x5e, 0x80, 0x9a, 0x3c,
  0x0e, 0x63, 0x01, 0x3e, 0x3f, 0xbb, 0x16, 0xbe, 0x0e, 0xa7, 0x3c, 0x3d,
  0x18, 0xd0, 0x2a, 0x3e, 0xb3, 0x91, 0x8e, 0xbd, 0xbc, 0x7c, 0x56, 0x3c,
  0x54, 0xc3, 0x0f, 0x3e, 0x74, 0x5f, 0x3c, 0x3d, 0x47, 0x53, 0x21, 0xbe,
  0x63, 0xd6, 0xf8, 0x3d, 0xa9, 0xcd, 0xd3, 0xbd, 0xb4, 0x6e, 0x03, 0x3d,
  0x37, 0x11, 0x51, 0x3d, 0xab, 0x68, 0x29, 0x3e, 0xa5, 0xf3, 0x0c, 0x3e,
  0x81, 0x59, 0x0c, 0x3e, 0xd9, 0xd7, 0xf8, 0x3d, 0x34, 0x87, 0x71, 0x3d,
  0xb6, 0x1a, 0x52, 0xbe, 0x75, 0xc5, 0xb7, 0xbd, 0xe6, 0x87, 0xc0, 0xbc,
  0x0f, 0x06, 0x65, 0xbd, 0x49, 0x9f, 0x43, 0xbb, 0x2e, 0xaf, 0x81, 0xbe,
  0x06, 0x8b, 0xbf, 0x3c, 0xa4, 0xe2, 0x26, 0x3e, 0x6b, 0x31, 0x48, 0xbc,
  0x60, 0xe8, 0x14, 0x3e, 0x0a, 0xbe, 0x37, 0x3e, 0xc6, 0xad, 0x22, 0x3e,
  0x71, 0x67, 0x35, 0xbe, 0x8f, 0x65, 0x11, 0xbe, 0x9f, 0x4c, 0x75, 0x3d,
  0x42, 0xe9, 0x48, 0xbd, 0xc0, 0x3f, 0x5d, 0x3d, 0x8a, 0xa7, 0xc3, 0x3c,
  0x62, 0x1e, 0x87, 0x3c, 0xfc, 0x04, 0x2c, 0xbd, 0x57, 0x35, 0xf2, 0xbd,
  0xc1, 0xb2, 0xbf, 0xbd, 0x29, 0x10, 0xbf, 0x3d, 0x93, 0x5e, 0x06, 0x3d,
  0x4c, 0x64, 0xaa, 0x3d, 0xd9, 0xa8, 0xb6, 0x3d, 0x55, 0xee, 0x46, 0x3e,
  0x26, 0xdc, 0x3a, 0x3d, 0x10, 0xb2, 0x9d, 0x3d, 0xea, 0x5c, 0xa3, 0x3d,
  0x74, 0xa0, 0xe1, 0x3d, 0xdc, 0xbd, 0x44, 0xbe, 0xd6, 0xe0, 0x83, 0x3b,
  0x38, 0xbb, 0x70, 0xbd, 0x9a, 0x51, 0xb3, 0x3d, 0x02, 0x69, 0x29, 0x3d,
  0xab, 0x42, 0x5a, 0xbe, 0x4f, 0x07, 0xf4, 0xbd, 0x7d, 0x39, 0x4a, 0xbe,
  0x06, 0xd3, 0x2f, 0xbe, 0x43, 0x19, 0x57, 0xbe, 0x4d, 0xdb, 0xa3, 0x3d,
  0xd9, 0xc8, 0xfa, 0xbd, 0x2b, 0xd3, 0x5a, 0xbe, 0x19, 0x24, 0x08, 0xbe,
  0x10, 0x7c, 0x5f, 0xbe, 0x91, 0xc9, 0x16, 0x3e, 0x59, 0xfc, 0xc2, 0xbd,
  0x96, 0xde, 0xf1, 0xbd, 0x5e, 0x8d, 0xa1, 0xbd, 0xc7, 0x88, 0x18, 0xbe,
  0x97, 0x2a, 0x0f, 0xbe, 0xea, 0xfa, 0x41, 0xbd, 0x00, 0x08, 0x19, 0x3e,
  0x73, 0x4c, 0xe0, 0xbd, 0x54, 0x93, 0x7a, 0x3d, 0x40, 0x72, 0xf2, 0x3b,
  0xf8, 0xc6, 0xbd, 0x3d, 0x10, 0x19, 0x3c, 0x3e, 0x07, 0x51, 0x44, 0xbe,
  0xa4, 0xea, 0x5a, 0x3d, 0x0c, 0x5b, 0xc7, 0x3b, 0xde, 0x57, 0x29, 0xbe,
  0x83, 0x9f, 0x8f, 0x3d, 0x89, 0xe4, 0x99, 0xbc, 0x31, 0x22, 0x07, 0xbe,
  0x95, 0x7c, 0x34, 0x3e, 0x44, 0x13, 0x37, 0x3e, 0x48, 0x0d, 0x2c, 0xbe,
  0xee, 0xd8, 0x2f, 0x3e, 0x03, 0x3c, 0x0f, 0x3e, 0x10, 0xfc, 0x17, 0x3e,
  0x09, 0x5f, 0x31, 0x3e, 0xec, 0xf8, 0xc1, 0x3d, 0x73, 0x10, 0xcc, 0xbd,
  0x13, 0xe4, 0x5d, 0xbe, 0x76, 0x2e, 0x54, 0xbe, 0x39, 0x39, 0x03, 0xbd,
  0xa5, 0xaa, 0x43, 0xbd, 0x55, 0x64, 0x8a, 0xbd, 0x1e, 0x35, 0xa2, 0xbd,
  0x96, 0xaf, 0xd3, 0x3d, 0xf5, 0xc7, 0xc9, 0xbd, 0x5e, 0x92, 0xf9, 0xbd,
  0x75, 0x24, 0xeb, 0xbd, 0x18, 0x8c, 0x77, 0x3d, 0xdb, 0x2f, 0x58, 0xbe,
  0x31, 0x87, 0xd7, 0x3d, 0x88, 0xd2, 0xa0, 0xbc, 0x7e, 0x5e, 0x65, 0xbe,
  0x39, 0x53, 0x84, 0xbc, 0x4e, 0x5e, 0x4c, 0x3e, 0x70, 0x7b, 0xd8, 0xbc,
  0x5b, 0xb9, 0x48, 0xbe, 0x4e, 0xe1, 0x82, 0xbd, 0xf8, 0xab, 0x11, 0xbe,
  0x40, 0xe6, 0x44, 0x3e, 0xaa, 0x3e, 0x19, 0x3e, 0xd2, 0xea, 0x2b, 0xbe,
  0xb4, 0x2d, 0x29, 0x3e, 0x7d, 0xd9, 0x86, 0x3d, 0xb7, 0x1e, 0xb5, 0xbd,
  0xc2, 0xa9, 0x02, 0xbe, 0x1b, 0x72, 0x39, 0x3d, 0x09, 0x45, 0xfb, 0xbd,
  0xca, 0x81, 0x5e, 0xbe, 0x6d, 0x80, 0x1b, 0x3e, 0x6e, 0xeb, 0x1c, 0xbe,
  0x0a, 0xf5, 0x08, 0xbd, 0x66, 0x83, 0xf0, 0x3d, 0x9e, 0x63, 0x44, 0x3e,
  0x25, 0xda, 0xe2, 0xbd, 0x91, 0xb7, 0x7f, 0x3d, 0x8a, 0x42, 0x4d, 0x3e,
  0x7d, 0xeb, 0x62, 0xbd, 0x45, 0x59, 0x31, 0x3e, 0xbf, 0x73, 0xdf, 0xbd,
  0xef, 0xfe, 0x60, 0xbe, 0xc9, 0x9e, 0xca, 0x3d, 0x98, 0xc3, 0x3c, 0xbe,
  0x2c, 0xba, 0x73, 0x3d, 0xe8, 0x0e, 0x21, 0x3d, 0x4c, 0x54, 0x0c, 0xbe,
  0x2e, 0x5e, 0x2b, 0x3e, 0x45, 0x21, 0x1b, 0x3e, 0x1a, 0x99, 0x0c, 0x3e,
  0x36, 0x4c, 0xba, 0x3d, 0x38, 0xf5, 0x81, 0xbe, 0x9d, 0x72, 0xdf, 0xbc,
  0x17, 0x98, 0x07, 0x3d, 0x39, 0xb3, 0x15, 0xbe, 0xed, 0x15, 0xf3, 0xbc,
  0x6b, 0xb2, 0x7d, 0xbe, 0xb0, 0xa2, 0x88, 0x3d, 0xec, 0x71, 0x9b, 0x3c,
  0x24, 0xe3, 0xaf, 0x3c, 0x5f, 0x7c, 0x51, 0x3d, 0xd6, 0x4a, 0xd4, 0x3d,
  0xa7, 0x0d, 0x9f, 0x3d, 0x59, 0x95, 0x44, 0xbd, 0x68, 0x75, 0x16, 0x3e,
  0x33, 0x6a, 0x03, 0xbe, 0x8a, 0xc7, 0xaf, 0xbd, 0x6f, 0x96, 0x97, 0xbd,
  0xc1, 0x90, 0x78, 0x3d, 0x65, 0x02, 0x3f, 0x3e, 0x7d, 0x55, 0xb4, 0xbd,
  0x83, 0x0a, 0x36, 0x3d, 0xbf, 0xd9, 0xd0, 0x3d, 0x8f, 0x88, 0xb0, 0xbd,
  0x7b, 0x35, 0x28, 0xbe, 0xd8, 0x2f, 0x93, 0xbd, 0x5d, 0x04, 0x2c, 0xbe,
  0x6c, 0x2e, 0x00, 0x3e, 0xeb, 0xdb, 0xd1, 0xbd, 0x37, 0xc0, 0xe6, 0xbd,
  0xdc, 0x77, 0xff, 0x3d, 0x2c, 0x21, 0x23, 0xbd, 0x64, 0xc6, 0xb5, 0x3d,
  0xb0, 0x06, 0x29, 0x3e, 0xa8, 0x5b, 0xcc, 0xbc, 0xff, 0xe3, 0xb6, 0xbd,
  0x72, 0x24, 0x03, 0xbe, 0x7b, 0x08, 0xf0, 0xbd, 0x72, 0xf1, 0x80, 0xbe,
  0xc3, 0xdc, 0xef, 0xbd, 0xee, 0x00, 0xcd, 0xbd, 0xfc, 0x91, 0x16, 0xbe,
  0x51, 0x5f, 0xc2, 0x3c, 0x29, 0x33, 0xb8, 0x3c, 0xdc, 0xfc, 0x0d, 0x3e,
  0x21, 0x30, 0xd3, 0x3a, 0x4d, 0x46, 0xd8, 0xbc, 0x2f, 0xf1, 0x27, 0x3e,
  0xe3, 0xac, 0x61, 0x3d, 0xbb, 0x75, 0xf6, 0x3c, 0x99, 0x5e, 0x25, 0xbe,
  0x33, 0xfe, 0x0d, 0xbd, 0x48, 0xba, 0x15, 0x3e, 0x84, 0x90, 0x95, 0x3d,
  0xca, 0x35, 0x0e, 0x3e, 0xde, 0x77, 0x84, 0x3d, 0xcf, 0xe4, 0xab, 0xbc,
  0xff, 0xd1, 0x31, 0xbe, 0x82, 0xd0, 0xe8, 0xbc, 0x7f, 0xc3, 0xf4, 0x3a,
  0xd9, 0x24, 0xe4, 0x3c, 0x1f, 0xf2, 0x32, 0xbe, 0x69, 0x8b, 0x48, 0x3a,
  0x4c, 0x1c, 0x17, 0xbe, 0xdf, 0x18, 0x69, 0xbe, 0xde, 0x86, 0x33, 0xbd,
  0x7d, 0xe8, 0x95, 0x3d, 0xf8, 0x34, 0xdf, 0x3d, 0xdf, 0x94, 0x56, 0xbe,
  0xb0, 0x0e, 0x81, 0xbe, 0xe7, 0xcc, 0x99, 0x3d, 0xb8, 0xdf, 0x87, 0xbd,
  0xe9, 0xee, 0x53, 0xbd, 0x5a, 0x83, 0x69, 0x3d, 0xfe, 0x6b, 0xa8, 0xbc,
  0xcc, 0x6d, 0xf5, 0x3d, 0x0f, 0x99, 0x47, 0xbe, 0x9a, 0x87, 0x7d, 0xbe,
  0x00, 0xd3, 0x2f, 0x3d, 0x7c, 0xe2, 0x81, 0xbc, 0x75, 0x82, 0x11, 0x3e,
  0xb8, 0x41, 0x60, 0xbe, 0x38, 0xc9, 0x87, 0xbd, 0xf5, 0x1d, 0x22, 0xbd,
  0x35, 0x41, 0xd6, 0xbd, 0xb9, 0xfd, 0xb4, 0x3d, 0xb4, 0x8d, 0xf9, 0x3d,
  0x56, 0x9d, 0x59, 0xbe, 0xc7, 0xcc, 0x15, 0x3d, 0xd9, 0xae, 0x6c, 0xb8,
  0xbe, 0x6c, 0xb9, 0xbd, 0xf8, 0x5e, 0x0f, 0x3d, 0xb5, 0x56, 0x2f, 0x3e,
  0xe5, 0xb3, 0x05, 0xbe, 0x1a, 0x74, 0x55, 0xbe, 0x35, 0x4b, 0x0e, 0x3e,
  0x98, 0xef, 0x22, 0xbe, 0xe1, 0x7e, 0x27, 0xbe, 0x88, 0xe3, 0x4b, 0x3e,
  0x52, 0xcb, 0x2a, 0x3e, 0xd3, 0x74, 0xfd, 0xbd, 0x21, 0x30, 0x20, 0x3e,
  0xc0, 0xaa, 0x02, 0x3e, 0x8b, 0xa2, 0x31, 0xbe, 0x17, 0xba, 0x2d, 0x3e,
  0x3e, 0xa5, 0x15, 0x3e, 0x0c, 0x81, 0x53, 0xbe, 0xa4, 0x75, 0x68, 0xbe,
  0xe2, 0x49, 0x7c, 0x3d, 0xe7, 0xb0, 0x08, 0xbe, 0xce, 0x12, 0xa0, 0x3d,
  0x60, 0xea, 0x45, 0xbe, 0xc2, 0xf6, 0x1b, 0x3e, 0xa2, 0x8f, 0x5f, 0xbe,
  0x22, 0xad, 0xbb, 0xbd, 0x8e, 0xc9, 0x37, 0x3e, 0xde, 0x54, 0x2e, 0x3e,
  0xf6, 0xcd, 0x17, 0xbe, 0x75, 0xbc, 0xa1, 0x3d, 0x69, 0x4a, 0x8a, 0xbd,
  0xb4, 0x95, 0x48, 0x3d, 0x24, 0x70, 0xad, 0x3d, 0xcc, 0xaa, 0x63, 0xbd,
  0x8c, 0x8b, 0x46, 0x3e, 0x11, 0x06, 0x99, 0xbb, 0x8b, 0xb2, 0xfa, 0xbd,
  0xc3, 0x7d, 0x5b, 0xbe, 0x3c, 0x2f, 0xb1, 0xbc, 0x50, 0x55, 0x05, 0x3d,
  0x47, 0x7c, 0x10, 0x3e, 0x03, 0x6c, 0x1b, 0x3e, 0x82, 0x62, 0x38, 0xbe,
  0xdc, 0xb7, 0x8b, 0x3b, 0xdb, 0x31, 0x87, 0x3d, 0x25, 0x94, 0x8f, 0x3d,
  0x7b, 0x6c, 0x22, 0x3c, 0x31, 0x6a, 0xf9, 0xbd, 0x53, 0xff, 0x0e, 0x3d,
  0x40, 0xc1, 0xa8, 0xbb, 0xfc, 0x8c, 0xd8, 0xbd, 0xe9, 0x33, 0xb2, 0x3c,
  0xd8, 0x75, 0xb7, 0xbd, 0xcb, 0xeb, 0x76, 0x3c, 0xa8, 0xcf, 0xc9, 0x3c,
  0xf3, 0x1f, 0xaf, 0xbc, 0x9a, 0x2e, 0x56, 0xbe, 0xde, 0xc9, 0xb1, 0x3d,
  0x00, 0xc7, 0x46, 0x3d, 0x3e, 0x0f, 0x1b, 0xbe, 0x50, 0xbf, 0xcf, 0x3d,
  0x37, 0x78, 0x2a, 0x3e, 0xca, 0x36, 0x14, 0xbe, 0x48, 0x00, 0x10, 0xbd,
  0x45, 0x4e, 0xc6, 0x3d, 0x0b, 0x64, 0x43, 0xbe, 0x1a, 0xfe, 0xb4, 0xbd,
  0x29, 0xc7, 0x1b, 0x3d, 0x62, 0x46, 0xb6, 0x3d, 0x76, 0x62, 0x3f, 0xbe,
  0x05, 0x45, 0x89, 0x3c, 0xa8, 0xc1, 0x6f, 0xbe, 0x4f, 0xe0, 0x12, 0xbe,
  0xe9, 0xd3, 0x08, 0xbe, 0x21, 0xcf, 0x5b, 0xbe, 0x67, 0x29, 0x2f, 0x3e,
  0x0f, 0xf5, 0x89, 0x3d, 0xc0, 0xa2, 0x32, 0xbe, 0x88, 0x04, 0xf7, 0x3c,
  0x96, 0xeb, 0x2e, 0x3e, 0x9e, 0xcd, 0xd8, 0xbd, 0x96, 0x08, 0xb7, 0xbd,
  0x70, 0x7d, 0x2d, 0x3e, 0x7e, 0x3a, 0x8f, 0xbd, 0x2c, 0x82, 0x1b, 0xbe,
  0x96, 0xe0, 0xaf, 0xbc, 0x1c, 0xa6, 0x4c, 0xbe, 0x51, 0xf8, 0xc1, 0x3d,
  0x6e, 0x5a, 0xb8, 0x3c, 0xf9, 0x57, 0x44, 0xbe, 0x4e, 0x77, 0x43, 0x3e,
  0x60, 0x14, 0x0f, 0xbe, 0x4e, 0xa4, 0x2c, 0xbe, 0x79, 0x8d, 0x82, 0xbd,
  0x4e, 0x92, 0x81, 0x3d, 0x12, 0x3a, 0xa4, 0x3d, 0x79, 0xca, 0xc4, 0x3d,
  0xf6, 0xa6, 0xdf, 0x3d, 0xc1, 0x68, 0x00, 0xbe, 0xf2, 0x9c, 0x07, 0x3d,
  0x14, 0x5a, 0xc9, 0x3d, 0xbc, 0x3c, 0x6d, 0xbe, 0x2c, 0xb3, 0x08, 0x3e,
  0x3d, 0xef, 0x01, 0xbe, 0x2b, 0x6f, 0x0d, 0xbe, 0x94, 0x1a, 0xe2, 0x3d,
  0x5d, 0x16, 0x29, 0x3d, 0x74, 0x7e, 0x31, 0x3e, 0xd9, 0x32, 0x0f, 0xbd,
  0x16, 0xd2, 0x96, 0x3d, 0xe8, 0xaf, 0xcf, 0x3d, 0x96, 0x4b, 0x26, 0x3e,
  0xe2, 0xc9, 0xc0, 0x3d, 0x1a, 0xac, 0xc6, 0xbd, 0xb9, 0xdb, 0x5b, 0xbe,
  0xd9, 0xa6, 0x35, 0xbe, 0x79, 0x38, 0x03, 0xbe, 0xef, 0x1a, 0x57, 0xbe,
  0xcc, 0x28, 0x55, 0xbe, 0x59, 0x81, 0xb4, 0xbd, 0x13, 0x8c, 0x9a, 0x3d,
  0x98, 0x98, 0x49, 0xbe, 0x7b, 0xe6, 0x66, 0xbe, 0x23, 0x28, 0x9c, 0xbd,
  0x82, 0x6a, 0x12, 0xbe, 0x03, 0x74, 0x13, 0x3e, 0x51, 0x85, 0xe9, 0x3d,
  0xa1, 0x8c, 0xe3, 0x3d, 0x53, 0x6f, 0x5b, 0xbc, 0x8f, 0xf1, 0x52, 0xbe,
  0xa4, 0xb3, 0x25, 0x3e, 0xd9, 0xf1, 0xfa, 0xbd, 0x06, 0x96, 0xda, 0xbd,
  0x95, 0xb1, 0x01, 0x3e, 0x37, 0xf8, 0x9b, 0x3d, 0x8b, 0x98, 0xc5, 0xbd,
  0x17, 0x01, 0xdf, 0xbd, 0x16, 0xc5, 0x06, 0x3e, 0x23, 0xc9, 0x67, 0x3e,
  0xda, 0x2e, 0x17, 0x3e, 0x6a, 0xbf, 0xa8, 0x3d, 0xc6, 0x49, 0xb2, 0xbd,
  0xf2, 0xb5, 0x09, 0x3e, 0x4c, 0x11, 0x5b, 0xbd, 0x8c, 0x53, 0x59, 0x3e,
  0x9e, 0x9c, 0x56, 0xbb, 0x20, 0xd6, 0x4c, 0xbe, 0x9d, 0x2d, 0xa7, 0xbd,
  0x9c, 0x8e, 0x36, 0x3e, 0x42, 0x8c, 0x42, 0x3d, 0x21, 0x20, 0xa5, 0xbd,
  0xa2, 0xde, 0xf4, 0x3d, 0xe7, 0x7e, 0x59, 0x3e, 0xad, 0xa4, 0x6a, 0x3e,
  0xa6, 0x6f, 0x05, 0x3e, 0xa5, 0xa1, 0xfb, 0x3d, 0x1f, 0x3d, 0x30, 0x3c,
  0xe4, 0x1e, 0x30, 0x3e, 0x5c, 0x8e, 0x46, 0x3e, 0xd0, 0x77, 0xe3, 0xbd,
  0x9b, 0x15, 0xa6, 0x3d, 0xe5, 0x73, 0x96, 0xbd, 0x04, 0x81, 0xfb, 0xbd,
  0xf1, 0x41, 0x19, 0xbe, 0x21, 0x7f, 0x3e, 0xbe, 0x3f, 0x15, 0x14, 0xbe,
  0x9d, 0xe1, 0x1a, 0xbd, 0xf4, 0x0e, 0x3c, 0x3e, 0x06, 0xea, 0x70, 0x3e,
  0xea, 0xb0, 0xc5, 0xbb, 0xc2, 0x5a, 0x17, 0x3e, 0x9c, 0x3b, 0xd2, 0x3d,
  0xc6, 0x14, 0xa3, 0xbb, 0xed, 0x14, 0x2b, 0xbe, 0x6b, 0x00, 0x8d, 0x3d,
  0xf3, 0xdf, 0xb3, 0x3d, 0xba, 0xe9, 0x90, 0x3d, 0x30, 0x59, 0xc3, 0x3c,
  0xb7, 0xf6, 0x42, 0x3e, 0x42, 0x05, 0x44, 0xbe, 0xc7, 0x4f, 0xea, 0x3b,
  0xce, 0x75, 0x88, 0xbc, 0xa8, 0xe4, 0x9a, 0xbd, 0x6e, 0x31, 0x0d, 0x3d,
  0x75, 0xcb, 0x62, 0xbd, 0x16, 0x45, 0x64, 0xbd, 0xc4, 0xfc, 0xe4, 0x3d,
  0x84, 0x7b, 0x6f, 0x3d, 0xad, 0x31, 0xf8, 0x3d, 0xca, 0xfb, 0x69, 0x3e,
  0x29, 0x84, 0x37, 0x3e, 0x86, 0x5e, 0xd4, 0xbc, 0x0f, 0x8c, 0x60, 0x3e,
  0x4e, 0x7c, 0xc4, 0x3d, 0x09, 0x54, 0x31, 0xbe, 0xcc, 0x14, 0x20, 0x3d,
  0xc8, 0xc2, 0x76, 0x3d, 0xd2, 0xcf, 0xc8, 0xbd, 0xb5, 0x88, 0x45, 0x3e,
  0xcf, 0xf1, 0x86, 0xbc, 0x3e, 0xf5, 0x1e, 0xbe, 0xf8, 0x89, 0x4b, 0xbe,
  0x1f, 0x82, 0x84, 0x3d, 0x9c, 0xff, 0x42, 0x3d, 0x2e, 0xd9, 0x62, 0x3e,
  0x55, 0x02, 0x49, 0x3e, 0x35, 0x18, 0x50, 0x3e, 0x38, 0xc6, 0x17, 0x3e,
  0xd8, 0x98, 0xa7, 0x3c, 0x00, 0xe4, 0x3a, 0x3e, 0xfc, 0x29, 0x80, 0x3c,
  0x18, 0xca, 0xf7, 0x3c, 0xb7, 0x51, 0xb9, 0xbd, 0xde, 0x4b, 0xe0, 0xbd,
  0x5b, 0x3d, 0x1e, 0x3e, 0xd8, 0x6e, 0x8f, 0xbd, 0x02, 0x83, 0xbf, 0x3d,
  0x91, 0xe4, 0x1b, 0x3e, 0x24, 0xc2, 0xd7, 0x3d, 0xfa, 0x63, 0x53, 0x3e,
  0xc5, 0xa4, 0x47, 0xbe, 0x16, 0xe0, 0x35, 0xbe, 0xf6, 0x31, 0x57, 0x3e,
  0xb9, 0xca, 0xcc, 0xbd, 0x5f, 0xf2, 0xf9, 0xbd, 0x34, 0x9a, 0x44, 0xbd,
  0x1b, 0xac, 0x04, 0xbc, 0x89, 0x1c, 0x3f, 0xbd, 0xbf, 0xd0, 0x15, 0x3e,
  0x21, 0xa8, 0xe5, 0x3d, 0xd1, 0x23, 0x6c, 0xbd, 0x9d, 0x51, 0xf0, 0x3a,
  0x79, 0xaf, 0x09, 0xbe, 0xa4, 0x75, 0x41, 0xbe, 0xb2, 0x7b, 0x0b, 0x3e,
  0xed, 0x2f, 0x22, 0x3e, 0x08, 0xdd, 0x55, 0x3e, 0x6f, 0x58, 0x5b, 0x3e,
  0x93, 0xef, 0x03, 0x3e, 0x35, 0xd1, 0x4f, 0x3e, 0xc8, 0xdc, 0xdc, 0x3d,
  0x82, 0xf0, 0x48, 0x3e, 0x27, 0xa7, 0x21, 0x3e, 0x0d, 0x1b, 0x00, 0xbe,
  0xe8, 0x9d, 0x16, 0xbe, 0x2d, 0x75, 0xab, 0xbd, 0x49, 0x89, 0x20, 0x3e,
  0x16, 0xb5, 0xa2, 0x3c, 0xe1, 0xc2, 0xb5, 0x3d, 0xbb, 0x18, 0xc7, 0x3d,
  0x73, 0x99, 0x58, 0x3d, 0x3a, 0xd4, 0x67, 0xbe, 0x00, 0x55, 0x31, 0xbb,
  0xa1, 0x64, 0x6d, 0xbe, 0xfe, 0x93, 0x00, 0xbd, 0xa1, 0x56, 0x75, 0x3d,
  0x74, 0x3c, 0xc5, 0xbd, 0x84, 0xb9, 0x13, 0x3e, 0xcd, 0x8a, 0x1b, 0xbe,
  0x15, 0x0a, 0xc3, 0x3c, 0x45, 0xa7, 0x44, 0xbe, 0xcf, 0x9b, 0x4a, 0xbb,
  0x20, 0x2d, 0x07, 0xbd, 0x23, 0x0b, 0x30, 0x3d, 0x1c, 0x1a, 0x4b, 0xbe,
  0xd3, 0xb2, 0xa7, 0x3d, 0x4a, 0x0c, 0xfc, 0xbd, 0x33, 0x29, 0x18, 0xbd,
  0x68, 0xc9, 0x82, 0x3c, 0xbc, 0x74, 0xec, 0xbc, 0x3c, 0x84, 0xb6, 0xbd,
  0x80, 0xf8, 0x0f, 0x3e, 0x3e, 0xcd, 0xe3, 0xbd, 0x46, 0x30, 0xca, 0x3d,
  0x2e, 0x28, 0x1c, 0xbe, 0x2b, 0xc6, 0xa8, 0xbb, 0xe8, 0x32, 0xd6, 0x3d,
  0x64, 0x7c, 0x79, 0xbe, 0xf4, 0x28, 0x4e, 0x3d, 0x9b, 0x19, 0xf9, 0x3d,
  0x11, 0x71, 0x26, 0x3d, 0x15, 0x98, 0x1a, 0x3e, 0x76, 0x1b, 0x4e, 0xbe,
  0x3d, 0x60, 0x57, 0xbe, 0x9d, 0xe7, 0x55, 0x3e, 0xad, 0xb2, 0x06, 0x3e,
  0xb3, 0xca, 0x2b, 0xbd, 0xbb, 0x25, 0x1f, 0xbe, 0x10, 0xe7, 0x77, 0xbe,
  0xaf, 0xce, 0x7a, 0x3d, 0x56, 0xed, 0x07, 0xbe, 0xdd, 0x94, 0x2b, 0x3e,
  0x47, 0x92, 0xc2, 0xbd, 0xcb, 0xfe, 0x99, 0x3d, 0xde, 0xfb, 0xa5, 0x3d,
  0x0b, 0xfa, 0x82, 0xbe, 0x04, 0xea, 0xa5, 0xbd, 0x85, 0x52, 0xb1, 0x3d,
  0x3a, 0x04, 0x18, 0x3e, 0x6d, 0x8c, 0x87, 0xbc, 0x42, 0x6f, 0x35, 0xbe,
  0xb8, 0x3f, 0x8c, 0xbd, 0xc0, 0xe1, 0x44, 0xbe, 0x19, 0x43, 0xa8, 0xbd,
  0x2d, 0x6e, 0x22, 0xbe, 0xc4, 0xae, 0xc5, 0xbc, 0x00, 0x78, 0x3b, 0xbe,
  0x4f, 0x4b, 0x35, 0xbe, 0x0a, 0x88, 0x00, 0x3e, 0xda, 0x3f, 0x24, 0x3e,
  0xf3, 0x6b, 0x57, 0x3b, 0x5c, 0x77, 0x87, 0x3d, 0x78, 0x59, 0x02, 0x3e,
  0x33, 0xa9, 0x53, 0xbe, 0x80, 0x2c, 0x80, 0xbe, 0x00, 0x0f, 0x6d, 0x3d,
  0x94, 0x8f, 0x05, 0xbe, 0x6a, 0x11, 0xe5, 0xbd, 0x4f, 0x3e, 0x33, 0xbe,
  0x99, 0xc8, 0x0d, 0x3d, 0xb2, 0x3b, 0x42, 0xbe, 0xa2, 0x4d, 0xb2, 0x3d,
  0x57, 0xaa, 0x4e, 0x3e, 0x28, 0xc3, 0x53, 0xbe, 0x2b, 0xb0, 0xa0, 0x3c,
  0xd0, 0xd1, 0x26, 0x3e, 0x62, 0xb8, 0xb9, 0x3d, 0x23, 0x0d, 0xc3, 0xbc,
  0xb6, 0x6d, 0xee, 0x3c, 0xaf, 0x86, 0x70, 0xbe, 0x83, 0x2e, 0x7b, 0x3d,
  0xa2, 0xce, 0x7a, 0xbe, 0x1f, 0x14, 0xec, 0xbd, 0xd4, 0x1c, 0x44, 0xbe,
  0x1f, 0xba, 0xa8, 0x3d, 0xd9, 0x02, 0x92, 0xbd, 0xec, 0x0f, 0xea, 0x3d,
  0xfe, 0xbf, 0x92, 0xbd, 0xc6, 0x3f, 0x2a, 0x3e, 0xe1, 0x0d, 0xe8, 0x3d,
  0x87, 0x7b, 0x9e, 0xbb, 0x09, 0x3f, 0x52, 0x3c, 0x6c, 0x46, 0x37, 0x3e,
  0x44, 0xf7, 0x4b, 0xbe, 0x8a, 0x1c, 0xf8, 0xbd, 0x26, 0x02, 0x4a, 0xbe,
  0x6a, 0x1b, 0xfc, 0x3c, 0x96, 0x6a, 0x4e, 0xbe, 0x38, 0x6d, 0xb8, 0xbc,
  0x3a, 0x70, 0x20, 0x3e, 0xb6, 0x9b, 0x16, 0xbe, 0x14, 0x5a, 0x3f, 0x3d,
  0x32, 0xd5, 0x45, 0xbe, 0xe7, 0x7a, 0x0d, 0xbc, 0x71, 0x12, 0xdc, 0x3c,
  0x5c, 0xa4, 0x82, 0xbd, 0xbf, 0xe4, 0x0c, 0xbe, 0x1f, 0xea, 0x68, 0xbc,
  0x87, 0x35, 0xf7, 0xbd, 0xc1, 0xf9, 0x14, 0x3d, 0x6a, 0xe0, 0x2f, 0x3e,
  0xac, 0x4a, 0xb2, 0xbc, 0x78, 0x21, 0x9f, 0x3c, 0xf9, 0xd4, 0x15, 0x3d,
  0x1c, 0x3d, 0x23, 0xbe, 0xbc, 0xf4, 0x68, 0x3e, 0x09, 0x08, 0x00, 0xbd,
  0x94, 0xf4, 0x25, 0x3e, 0x2e, 0xc1, 0x0c, 0x3e, 0x43, 0x5f, 0x0f, 0x3d,
  0xf8, 0xb9, 0x5c, 0x3d, 0x99, 0x5b, 0x14, 0xbe, 0xa2, 0xd9, 0x28, 0x3e,
  0x4d, 0xe1, 0x17, 0xbd, 0xfe, 0x3e, 0x26, 0x3e, 0x65, 0x29, 0xe9, 0xbd,
  0x4f, 0x8a, 0x0c, 0x3d, 0xde, 0xe4, 0xf0, 0xbd, 0x48, 0x4f, 0xb9, 0xbc,
  0x75, 0x69, 0xf9, 0x3d, 0x44, 0xff, 0x32, 0x3d, 0x6a, 0x68, 0xdf, 0xbd,
  0xea, 0x69, 0x10, 0xbe, 0x93, 0x35, 0x18, 0x3e, 0x5e, 0x72, 0x61, 0xbc,
  0x00, 0x10, 0x99, 0x3d, 0x30, 0xb9, 0xe0, 0xbc, 0x1b, 0x5b, 0x3a, 0x3e,
  0xab, 0xe1, 0x2c, 0x3e, 0x54, 0x37, 0x4a, 0x3e, 0x63, 0x2a, 0x58, 0x3e,
  0x30, 0x4e, 0x31, 0xbe, 0xf8, 0xd1, 0x6e, 0xbd, 0x05, 0xca, 0x48, 0x3e,
  0xd9, 0xd6, 0x11, 0xbd, 0x68, 0x32, 0xf0, 0x3d, 0xf3, 0xed, 0x39, 0x3e,
  0x8d, 0x4e, 0xac, 0xbc, 0xf5, 0xb0, 0xec, 0xbc, 0xb1, 0xb5, 0xdb, 0xbc,
  0xa6, 0xbb, 0x70, 0x3e, 0x8b, 0x3e, 0xf6, 0xbd, 0xb0, 0x00, 0x65, 0x3c,
  0x15, 0xc8, 0x8b, 0xba, 0xf7, 0xd7, 0x8c, 0x3d, 0x14, 0xf5, 0xa6, 0x3c,
  0xe6, 0x73, 0x8d, 0xbd, 0xba, 0xad, 0xce, 0xbd, 0x59, 0x41, 0xa4, 0xbd,
  0xfe, 0xcc, 0x11, 0xbd, 0x96, 0xcc, 0x41, 0xbe, 0x03, 0x40, 0xae, 0xbd,
  0xc2, 0x4c, 0xd2, 0xbd, 0xf4, 0x94, 0x1c, 0x3e, 0xf7, 0xa8, 0xef, 0x3d,
  0x41, 0x42, 0x72, 0x3e, 0x10, 0x05, 0x1a, 0xbe, 0x09, 0x0d, 0x8e, 0x3c,
  0x39, 0xa8, 0xa0, 0xbd, 0xec, 0x6a, 0x4b, 0xbe, 0x50, 0x11, 0xd0, 0x3d,
  0x06, 0xe4, 0x6d, 0x3d, 0x7e, 0x71, 0xbc, 0x3d, 0xbe, 0xd8, 0xc3, 0xbd,
  0x4d, 0xb8, 0x35, 0x3e, 0xb4, 0x28, 0xa3, 0x3c, 0x42, 0x78, 0x05, 0x3d,
  0xf0, 0x8c, 0x30, 0xbc, 0x63, 0x5e, 0xef, 0xbc, 0x13, 0x2c, 0x5e, 0x3e,
  0x16, 0xf8, 0xd7, 0xbd, 0x00, 0x4c, 0xe0, 0x3d, 0x29, 0xa7, 0x39, 0x3e,
  0xbd, 0x82, 0x08, 0x3e, 0x3a, 0xf8, 0xd6, 0x3b, 0x9c, 0xbc, 0x3e, 0x3e,
  0x3a, 0x9d, 0xc1, 0x3d, 0xd9, 0x95, 0x5d, 0xbd, 0x32, 0xa3, 0x62, 0x3e,
  0xcc, 0x7d, 0x27, 0x3e, 0xaa, 0xb9, 0x0a, 0x3e, 0xde, 0x2f, 0x18, 0x3d,
  0x12, 0xc2, 0xc1, 0x3d, 0xb2, 0xfd, 0x22, 0x3e, 0xb0, 0xe9, 0x17, 0xbe,
  0xc0, 0x35, 0x7b, 0x3e, 0x7e, 0x54, 0x0b, 0xbe, 0xcb, 0x24, 0x16, 0x3e,
  0xea, 0x97, 0x0d, 0x3e, 0x71, 0x9a, 0x97, 0xbd, 0xbb, 0xb8, 0x4f, 0x3e,
  0xbb, 0xa3, 0x59, 0xbd, 0x62, 0xba, 0x1c, 0x3d, 0xb5, 0x20, 0x08, 0xbe,
  0x57, 0xcf, 0xbb, 0xbd, 0xfc, 0xcf, 0x7e, 0x3e, 0xcc, 0xee, 0x01, 0xbe,
  0x98, 0xb1, 0x00, 0xbe, 0x88, 0xe6, 0x0e, 0x3e, 0xb7, 0x93, 0x48, 0x3e,
  0xbc, 0x08, 0x0a, 0x3e, 0x2d, 0xe6, 0xf0, 0xbd, 0x7c, 0xae, 0x18, 0x3d,
  0x98, 0x86, 0xf6, 0xbd, 0x9d, 0x50, 0x49, 0x3e, 0x16, 0xef, 0x78, 0xbd,
  0x71, 0x66, 0x51, 0x3d, 0xad, 0x4f, 0x29, 0x3c, 0xb0, 0x9f, 0x54, 0x3e,
  0xaa, 0x6e, 0xa4, 0x3b, 0xbb, 0x9d, 0x0e, 0xbe, 0x70, 0xb0, 0xc9, 0x3c,
  0xc5, 0x56, 0x3c, 0x3e, 0x8d, 0xc5, 0x1f, 0x3e, 0xdd, 0x14, 0x91, 0x3d,
  0x7b, 0xdf, 0x24, 0xbd, 0x5e, 0x04, 0x2e, 0xbe, 0x53, 0x61, 0x99, 0xbd,
  0xbd, 0x32, 0x00, 0x3a, 0x7f, 0xd4, 0xb6, 0x3d, 0xa5, 0x19, 0xba, 0xbd,
  0xf2, 0xac, 0x1f, 0xbe, 0xc1, 0x45, 0x0a, 0xbe, 0x1c, 0x8f, 0x5f, 0x3e,
  0x69, 0x42, 0xea, 0x3d, 0xa5, 0x9b, 0xd4, 0xbd, 0x97, 0xc3, 0x37, 0x3e,
  0x2c, 0xa9, 0x10, 0x3e, 0xae, 0xf2, 0x92, 0x3d, 0x5a, 0x70, 0x69, 0x3e,
  0x3b, 0x23, 0x83, 0x3e, 0xb8, 0xeb, 0xb8, 0x3d, 0xa6, 0x2d, 0x03, 0x3e,
  0xc1, 0x62, 0x75, 0x3e, 0xab, 0xf6, 0x1d, 0x3e, 0x5e, 0x5b, 0x06, 0x3e,
  0xc2, 0x67, 0x51, 0xbd, 0x2c, 0xb3, 0x51, 0x3d, 0x3c, 0xc7, 0x1e, 0xbe,
  0xe1, 0xd9, 0xe1, 0x3c, 0x63, 0x99, 0x78, 0x3d, 0x63, 0x8a, 0x43, 0x3e,
  0x58, 0x6f, 0x16, 0xbd, 0x72, 0xe1, 0x98, 0x3d, 0xb1, 0xf7, 0xed, 0x3d,
  0xca, 0x12, 0xf8, 0xbb, 0x00, 0x6b, 0x10, 0x3e, 0x1f, 0xa9, 0x05, 0x3e,
  0x05, 0x67, 0x0b, 0xbe, 0x61, 0x6d, 0xa1, 0x3d, 0xe2, 0xd4, 0x3b, 0x3d,
  0x64, 0xa3, 0x74, 0x3e, 0x3d, 0xac, 0x16, 0xbe, 0x8d, 0x66, 0x0b, 0x3b,
  0xd0, 0x0e, 0xe5, 0xbd, 0x9a, 0x26, 0xc5, 0x3d, 0x2b, 0xcf, 0xcc, 0x3d,
  0xae, 0x81, 0x07, 0xbe, 0xcb, 0x9b, 0xc8, 0xbd, 0xe2, 0xbf, 0xce, 0xbd,
  0x88, 0xff, 0x4c, 0x3e, 0x6c, 0x1e, 0x01, 0x3d, 0x76, 0x1e, 0x26, 0x3d,
  0xa5, 0xe5, 0xb0, 0x3d, 0x0e, 0x30, 0x73, 0xba, 0x4e, 0x88, 0x71, 0x3d,
  0xeb, 0x04, 0x30, 0x3e, 0x90, 0x25, 0xa7, 0xbd, 0xce, 0xd2, 0xea, 0xbc,
  0xf9, 0xe9, 0xb3, 0x3d, 0x15, 0xce, 0xc2, 0xbc, 0xe6, 0x72, 0xf2, 0xbc,
  0x9f, 0x0f, 0x05, 0x3e, 0x72, 0x4c, 0x46, 0x3e, 0x8f, 0x65, 0x2b, 0xbe,
  0xbb, 0x68, 0x4b, 0x3e, 0xc5, 0x7b, 0x72, 0x3e, 0x2a, 0xc4, 0xfd, 0x3c,
  0xb0, 0x4a, 0x32, 0x3e, 0x3e, 0x99, 0x5b, 0x3e, 0xe8, 0xd2, 0x5b, 0x3d,
  0x24, 0x91, 0x25, 0x3e, 0x19, 0xc6, 0x82, 0x3e, 0xc6, 0x3c, 0x7c, 0xbd,
  0x5e, 0x5a, 0x01, 0xbd, 0x3a, 0x00, 0x49, 0xbe, 0x0d, 0x11, 0x0c, 0x3d,
  0xd0, 0x9b, 0x94, 0x3c, 0x0a, 0x86, 0x97, 0xbd, 0x1d, 0x44, 0xda, 0xbd,
  0xe8, 0xe8, 0x2c, 0xbe, 0x58, 0x15, 0x72, 0x3b, 0xfa, 0x8d, 0x89, 0xbd,
  0x91, 0x4e, 0x15, 0x3e, 0x1b, 0xb6, 0x28, 0xbd, 0x62, 0x8a, 0x52, 0x3d,
  0x41, 0x4b, 0xb8, 0xbd, 0x9e, 0x01, 0x42, 0x3d, 0xa3, 0xdf, 0xf8, 0x3c,
  0x76, 0xeb, 0x01, 0x3b, 0x7e, 0x2e, 0xe8, 0x3d, 0xd4, 0x48, 0xfd, 0xbd,
  0xbb, 0x0f, 0xa1, 0xbc, 0x2e, 0xe4, 0x48, 0xbe, 0x3b, 0x25, 0x0f, 0x3e,
  0xe9, 0x23, 0xb2, 0xbc, 0x16, 0x87, 0x5a, 0xbd, 0xde, 0xbd, 0xb9, 0xbd,
  0x7c, 0xb3, 0x9f, 0xbd, 0xa3, 0xfc, 0x8d, 0x3d, 0x8e, 0x06, 0x96, 0xbd,
  0x76, 0x37, 0x96, 0xbd, 0x5e, 0x76, 0x66, 0x3e, 0x0e, 0xa5, 0x90, 0xbd,
  0x12, 0x82, 0x49, 0x3e, 0x52, 0x6e, 0x0a, 0x3d, 0x94, 0x85, 0x25, 0x3e,
  0x34, 0x09, 0x3a, 0x3e, 0x1a, 0x1f, 0x46, 0xbd, 0xfb, 0x72, 0x94, 0xbd,
  0x5b, 0x95, 0xf3, 0xbd, 0x46, 0x89, 0x99, 0xbd, 0xbe, 0x04, 0x55, 0xbd,
  0xf1, 0xbb, 0x44, 0x3e, 0x65, 0xc5, 0xcd, 0x3d, 0x20, 0xa2, 0x3e, 0x3e,
  0xe1, 0xd9, 0xf6, 0xbd, 0x12, 0x9a, 0x26, 0x3e, 0x35, 0x76, 0x2e, 0xbc,
  0x91, 0x54, 0x8d, 0xbd, 0x34, 0x0d, 0x6d, 0xbc, 0xf9, 0x9a, 0x60, 0xbd,
  0x84, 0x4f, 0x5a, 0xbe, 0xb0, 0xbb, 0x12, 0x3e, 0x58, 0xed, 0x8e, 0xbd,
  0xa4, 0x64, 0x21, 0x3e, 0x49, 0xb4, 0x24, 0xbe, 0xfc, 0x40, 0x95, 0x3d,
  0xf9, 0x03, 0x28, 0xbe, 0x6d, 0xfc, 0xa7, 0x3a, 0xdf, 0x3f, 0xa8, 0x3d,
  0x92, 0x45, 0x6d, 0x3d, 0xbd, 0x41, 0x45, 0x3e, 0xba, 0xa2, 0x53, 0xbe,
  0xe3, 0xe5, 0x29, 0xbb, 0x93, 0x8a, 0x0e, 0xbe, 0x77, 0x42, 0x35, 0x3e,
  0xf0, 0xb8, 0x55, 0x3d, 0xbf, 0x21, 0x10, 0xbe, 0x57, 0x1d, 0xab, 0x3d,
  0x7c, 0x86, 0x41, 0xbd, 0x70, 0xf9, 0x46, 0xbe, 0x08, 0x78, 0x97, 0xbb,
  0x59, 0xeb, 0xb7, 0xbd, 0x9f, 0x47, 0x12, 0xbe, 0xf3, 0x6a, 0xa3, 0xbd,
  0x1c, 0x6f, 0x50, 0xbe, 0xbb, 0xff, 0xe0, 0x3d, 0xdf, 0x1f, 0xa3, 0x3d,
  0x67, 0xd1, 0x1c, 0x3e, 0x6c, 0x23, 0x44, 0xbe, 0x6a, 0xce, 0xeb, 0xbc,
  0xba, 0xfe, 0x2f, 0x3b, 0x66, 0xaa, 0xee, 0xbd, 0x30, 0x94, 0x38, 0xbe,
  0xa1, 0x33, 0xb8, 0xbd, 0x5e, 0x26, 0x06, 0x3e, 0x3d, 0x68, 0x3f, 0x3e,
  0x2a, 0x35, 0x38, 0xbe, 0xf4, 0xf7, 0x2a, 0x3e, 0xe3, 0x4c, 0x8e, 0xbd,
  0x83, 0xa6, 0x47, 0xbe, 0x6a, 0x1c, 0xf9, 0x3c, 0x6b, 0x52, 0x5f, 0xbe,
  0x02, 0x84, 0xc5, 0xbc, 0x0c, 0xd9, 0xe5, 0xbc, 0xa6, 0xe5, 0x63, 0xbe,
  0x84, 0x91, 0x4f, 0xbd, 0x59, 0xa7, 0x3f, 0xbe, 0x07, 0xc5, 0xcd, 0x3b,
  0x7f, 0xa7, 0x10, 0x3d, 0x78, 0x46, 0xc2, 0xbd, 0x97, 0x4b, 0x43, 0xbd,
  0x0c, 0x6d, 0x0b, 0x3e, 0xeb, 0x29, 0x5e, 0x3d, 0xdd, 0x6c, 0x16, 0x3e,
  0xa3, 0x6d, 0x02, 0xbe, 0x10, 0xa6, 0xad, 0x3d, 0x55, 0x49, 0x0a, 0x3e,
  0x96, 0xe5, 0xd3, 0x3d, 0x43, 0x35, 0xf1, 0xbc, 0x58, 0xbd, 0xd8, 0xbd,
  0xb6, 0xf2, 0x1e, 0xbd, 0x9f, 0x79, 0x0a, 0xbe, 0x06, 0x88, 0xbd, 0x3c,
  0x0f, 0xff, 0xb0, 0x3d, 0x2b, 0x8a, 0x59, 0xbd, 0x19, 0xe0, 0xa3, 0xbd,
  0xf1, 0x50, 0x3e, 0xbd, 0x85, 0x29, 0x93, 0xbd, 0x5a, 0x6b, 0x71, 0x3d,
  0x7c, 0x26, 0x70, 0xbe, 0xbb, 0x94, 0x89, 0x3b, 0xeb, 0x62, 0xe2, 0x3c,
  0x6f, 0x11, 0xbe, 0xbd, 0x40, 0x07, 0x4a, 0x3e, 0x70, 0x87, 0xe0, 0xbd,
  0xd0, 0xc9, 0xef, 0x3d, 0xd1, 0x6e, 0x77, 0xbe, 0xb9, 0xcb, 0x10, 0x3d,
  0x82, 0x5e, 0x6b, 0xbe, 0xcd, 0x42, 0xfe, 0x3d, 0x5c, 0x39, 0x65, 0xbe,
  0x47, 0x95, 0x62, 0xbd, 0x0c, 0x89, 0x1d, 0xbd, 0xe4, 0xe9, 0x18, 0x3d,
  0xe2, 0x25, 0xd5, 0x3c, 0xcc, 0x98, 0x32, 0xbe, 0xb7, 0x61, 0x28, 0xbd,
  0xc4, 0xbb, 0xd6, 0xbd, 0xe1, 0x0d, 0x89, 0x3c, 0xe2, 0xe9, 0xc0, 0xbd,
  0xfd, 0xd5, 0x4b, 0x3c, 0xa8, 0x13, 0x58, 0x3b, 0xbd, 0x8f, 0xee, 0x3d,
  0xbd, 0x7e, 0x69, 0xbe, 0x27, 0xec, 0xd7, 0xbd, 0x91, 0xda, 0xb6, 0x3d,
  0x1f, 0xc3, 0xca, 0x3c, 0x1f, 0xdb, 0x23, 0x3e, 0x65, 0xf8, 0x56, 0xbe,
  0xe5, 0x15, 0x0b, 0x3e, 0x1e, 0xa2, 0xb7, 0xbd, 0xdf, 0x2b, 0xcd, 0xbd,
  0x40, 0xf3, 0xbc, 0x3d, 0xec, 0x97, 0xe1, 0xbc, 0x2f, 0x64, 0x3d, 0xbe,
  0xf4, 0x53, 0xdf, 0x3d, 0xc1, 0xb1, 0x2c, 0x3d, 0x10, 0x30, 0xec, 0x3c,
  0xfa, 0x00, 0xd4, 0xbc, 0x8c, 0xbe, 0x04, 0x3d, 0x61, 0xa4, 0x9d, 0x3d,
  0x3e, 0xaa, 0x8e, 0xbd, 0x2a, 0x50, 0x8a, 0xbe, 0xa0, 0x9b, 0x57, 0xbe,
  0xa0, 0x82, 0x40, 0xbe, 0x29, 0xa7, 0x6f, 0xbc, 0xfe, 0x54, 0xea, 0x3d,
  0xbc, 0xc0, 0x82, 0xbe, 0x7e, 0x54, 0xc8, 0xbd, 0x84, 0xe6, 0x5b, 0xbe,
  0x8c, 0x83, 0xa3, 0xbd, 0xfa, 0xb0, 0xeb, 0x3d, 0xe0, 0x81, 0x33, 0x3d,
  0x03, 0xfe, 0x1f, 0x3e, 0x4f, 0x33, 0x22, 0x3e, 0xd9, 0x39, 0xa5, 0xbd,
  0x9d, 0x12, 0x13, 0x3e, 0x55, 0xeb, 0x4f, 0xbe, 0x1e, 0x57, 0x93, 0x3d,
  0x14, 0x08, 0x6c, 0x3c, 0x3e, 0xe7, 0xb9, 0x3d, 0xa9, 0x3f, 0xf2, 0x3c,
  0xff, 0xde, 0x37, 0xbd, 0x7d, 0xb2, 0x3a, 0xbe, 0xde, 0x65, 0xfc, 0xbd,
  0x23, 0xfc, 0x09, 0x3e, 0x70, 0xf9, 0x3e, 0x3d, 0x49, 0x66, 0x39, 0xbe,
  0x0b, 0x52, 0x05, 0xbe, 0x6d, 0x74, 0xcf, 0x3d, 0xbe, 0x67, 0xd7, 0x3d,
  0x5b, 0xb2, 0x91, 0x3d, 0xe7, 0x1c, 0x27, 0xbe, 0x34, 0x16, 0xb6, 0x3d,
  0xe3, 0x35, 0x1b, 0x3e, 0x2a, 0x6f, 0xff, 0x3d, 0x60, 0x5f, 0xf6, 0x3d,
  0xd4, 0xba, 0x2d, 0xbe, 0x3a, 0xe1, 0x2e, 0x3d, 0xef, 0xfb, 0xb1, 0xbd,
  0x2d, 0x24, 0x1e, 0x3e, 0x05, 0x36, 0x65, 0xbd, 0x1f, 0x38, 0x82, 0xbe,
  0xaa, 0x69, 0x2e, 0x3e, 0x3a, 0x64, 0x24, 0x3e, 0x9f, 0xb0, 0xd6, 0x3d,
  0x91, 0x9d, 0x52, 0xbe, 0x49, 0x73, 0x29, 0xbe, 0x00, 0xbb, 0x81, 0xbd,
  0x71, 0xde, 0x5d, 0xbd, 0x9e, 0xc0, 0xcd, 0x3c, 0x84, 0xd0, 0x23, 0xbd,
  0x53, 0x85, 0xe8, 0x3d, 0x63, 0x39, 0x38, 0xbe, 0x7e, 0xf6, 0xd4, 0xbd,
  0x01, 0xa3, 0x00, 0xbe, 0x13, 0xb1, 0xe8, 0x3d, 0xa4, 0x74, 0x50, 0xbe,
  0x64, 0xeb, 0x0e, 0xbe, 0xac, 0x5f, 0x2f, 0x3e, 0x97, 0x3c, 0x39, 0xbe,
  0x9e, 0x76, 0xa6, 0x3d, 0x35, 0x08, 0xed, 0xbc, 0x3f, 0xa1, 0x04, 0xbe,
  0x9d, 0x84, 0x14, 0xbd, 0x2b, 0xce, 0xd0, 0xbd, 0x0a, 0x4e, 0x28, 0xbe,
  0x69, 0xff, 0xe1, 0xbd, 0x40, 0x6c, 0xfc, 0x3d, 0xb4, 0xe5, 0x4a, 0x3e,
  0xd0, 0x97, 0xef, 0x3d, 0x5e, 0x8e, 0x0b, 0xbe, 0x34, 0x24, 0xbf, 0x3d,
  0x62, 0x60, 0x6c, 0x3b, 0x6b, 0x87, 0x83, 0xbe, 0xc8, 0xaa, 0x0b, 0xbd,
  0x14, 0xef, 0x78, 0xbd, 0x0c, 0x03, 0x63, 0xbe, 0x43, 0x4a, 0x22, 0xbe,
  0x32, 0xef, 0xcd, 0x3d, 0x0f, 0xd3, 0x39, 0xba, 0x36, 0xda, 0x5b, 0xbe,
  0x6d, 0x0d, 0x36, 0x3e, 0x8a, 0xcf, 0x4a, 0xbe, 0x2a, 0xd7, 0x57, 0xbe,
  0xda, 0x45, 0x21, 0x3e, 0xa6, 0xe0, 0x6e, 0xbe, 0x74, 0x83, 0xd1, 0xbd,
  0x15, 0xcd, 0xec, 0x3d, 0x65, 0xea, 0x80, 0xba, 0xb6, 0x93, 0x81, 0xbe,
  0x3f, 0x53, 0xac, 0x3c, 0x32, 0xc3, 0x21, 0x3e, 0x4d, 0x7f, 0x5a, 0xbe,
  0xd3, 0xa4, 0x33, 0x3c, 0x5a, 0x5d, 0x96, 0xbd, 0x3d, 0x9d, 0x85, 0x3d,
  0x05, 0x90, 0x79, 0xbe, 0xd1, 0x30, 0x4d, 0xbe, 0x53, 0xee, 0x11, 0x3e,
  0xbe, 0xa1, 0x18, 0xbd, 0x3a, 0x06, 0x38, 0x3e, 0xad, 0x6d, 0x97, 0x3d,
  0x36, 0x3e, 0xc4, 0x3c, 0x2c, 0x66, 0xdd, 0x3d, 0x60, 0x02, 0xf5, 0xbd,
  0x66, 0xfd, 0xff, 0xff, 0x10, 0x00, 0x00, 0x00, 0x07, 0x00, 0x00, 0x00,
  0x14, 0x00, 0x00, 0x00, 0x2c, 0x00, 0x00, 0x00, 0x02, 0x00, 0x00, 0x00,
  0x10, 0x00, 0x00, 0x00, 0x70, 0x00, 0x00, 0x00, 0x17, 0x00, 0x00, 0x00,
  0x73, 0x65, 0x71, 0x75, 0x65, 0x6e, 0x74, 0x69, 0x61, 0x6c, 0x2f, 0x64,
  0x65, 0x6e, 0x73, 0x65, 0x2f, 0x4d, 0x61, 0x74, 0x4d, 0x75, 0x6c, 0x00,
  0xd0, 0xfc, 0xff, 0xff, 0xda, 0xfd, 0xff, 0xff, 0x04, 0x00, 0x00, 0x00,
  0x08, 0x00, 0x00, 0x00, 0xff, 0xff, 0xff, 0xff, 0x70, 0x00, 0x00, 0x00,
  0x00, 0x00, 0x0e, 0x00, 0x18, 0x00, 0x08, 0x00, 0x07, 0x00, 0x0c, 0x00,
  0x10, 0x00, 0x14, 0x00, 0x0e, 0x00, 0x00, 0x00, 0x00, 0x00, 0x00, 0x02,
  0x10, 0x00, 0x00, 0x00, 0x06, 0x00, 0x00, 0x00, 0x10, 0x00, 0x00, 0x00,
  0x2c, 0x00, 0x00, 0x00, 0x01, 0x00, 0x00, 0x00, 0x02, 0x00, 0x00, 0x00,
  0x18, 0x00, 0x00, 0x00, 0x73, 0x65, 0x71, 0x75, 0x65, 0x6e, 0x74, 0x69,
  0x61, 0x6c, 0x2f, 0x66, 0x6c, 0x61, 0x74, 0x74, 0x65, 0x6e, 0x2f, 0x43,
  0x6f, 0x6e, 0x73, 0x74, 0x00, 0x00, 0x00, 0x00, 0x38, 0xfd, 0xff, 0xff,
  0x42, 0xfe, 0xff, 0xff, 0x04, 0x00, 0x00, 0x00, 0x0c, 0x00, 0x00, 0x00,
  0x3b, 0x6a, 0x75, 0xbf, 0xd1, 0xe3, 0xad, 0xbf, 0x2c, 0x0d, 0x8b, 0x3f,
  0x26, 0xfe, 0xff, 0xff, 0x10, 0x00, 0x00, 0x00, 0x05, 0x00, 0x00, 0x00,
  0x10, 0x00, 0x00, 0x00, 0x44, 0x00, 0x00, 0x00, 0x01, 0x00, 0x00, 0x00,
  0x03, 0x00, 0x00, 0x00, 0x32, 0x00, 0x00, 0x00, 0x73, 0x65, 0x71, 0x75,
  0x65, 0x6e, 0x74, 0x69, 0x61, 0x6c, 0x2f, 0x64, 0x65, 0x6e, 0x73, 0x65,
  0x5f, 0x31, 0x2f, 0x42, 0x69, 0x61, 0x73, 0x41, 0x64, 0x64, 0x2f, 0x52,
  0x65, 0x61, 0x64, 0x56, 0x61, 0x72, 0x69, 0x61, 0x62, 0x6c, 0x65, 0x4f,
  0x70, 0x2f, 0x72, 0x65, 0x73, 0x6f, 0x75, 0x72, 0x63, 0x65, 0x00, 0x00,
  0xa8, 0xfd, 0xff, 0xff, 0xb2, 0xfe, 0xff, 0xff, 0x04, 0x00, 0x00, 0x00,
  0x40, 0x00, 0x00, 0x00, 0x00, 0x00, 0x00, 0x00, 0x39, 0x5a, 0xec, 0xbc,
  0x64, 0x6d, 0x1e, 0xbd, 0x1f, 0xb8, 0x75, 0x3d, 0x98, 0xb3, 0x82, 0xbc,
  0x6c, 0xca, 0x5b, 0x3d, 0x1b, 0x9c, 0x2c, 0xbd, 0x2e, 0xe6, 0x67, 0xbc,
  0xa5, 0xfa, 0x3e, 0xbd, 0xc3, 0xc0, 0xa9, 0xbc, 0xd7, 0x68, 0x83, 0x3c,
  0xae, 0xf8, 0x27, 0xbd, 0x9a, 0x5b, 0x76, 0x3d, 0x70, 0x24, 0x5e, 0x3d,
  0x99, 0xc7, 0x1e, 0xbd, 0x76, 0xd4, 0x59, 0xbd, 0xca, 0xfe, 0xff, 0xff,
  0x10, 0x00, 0x00, 0x00, 0x04, 0x00, 0x00, 0x00, 0x10, 0x00, 0x00, 0x00,
  0x44, 0x00, 0x00, 0x00, 0x01, 0x00, 0x00, 0x00, 0x10, 0x00, 0x00, 0x00,
  0x30, 0x00, 0x00, 0x00, 0x73, 0x65, 0x71, 0x75, 0x65, 0x6e, 0x74, 0x69,
  0x61, 0x6c, 0x2f, 0x64, 0x65, 0x6e, 0x73, 0x65, 0x2f, 0x42, 0x69, 0x61,
  0x73, 0x41, 0x64, 0x64, 0x2f, 0x52, 0x65, 0x61, 0x64, 0x56, 0x61, 0x72,
  0x69, 0x61, 0x62, 0x6c, 0x65, 0x4f, 0x70, 0x2f, 0x72, 0x65, 0x73, 0x6f,
  0x75, 0x72, 0x63, 0x65, 0x00, 0x00, 0x00, 0x00, 0x4c, 0xfe, 0xff, 0xff,
  0x56, 0xff, 0xff, 0xff, 0x04, 0x00, 0x00, 0x00, 0x40, 0x00, 0x00, 0x00,
  0xd4, 0xf4, 0xa9, 0x3d, 0x90, 0xe7, 0x40, 0xbc, 0x84, 0x85, 0xfd, 0x3c,
  0xb6, 0x70, 0x7b, 0x3d, 0xb4, 0x18, 0xcb, 0xbc, 0x44, 0x64, 0x84, 0x3c,
  0x08, 0x1c, 0x8f, 0x3d, 0x39, 0xb6, 0xaf, 0xbc, 0x7e, 0xcc, 0x81, 0x3d,
  0x82, 0x45, 0x39, 0x3c, 0x1c, 0x5c, 0x46, 0xbd, 0x6a, 0x6b, 0x41, 0xbd,
  0xe7, 0xa5, 0x37, 0xbb, 0xb5, 0xaf, 0x1f, 0xbd, 0x8c, 0x14, 0x93, 0xbd,
  0x6b, 0xe6, 0x0c, 0x3d, 0x6e, 0xff, 0xff, 0xff, 0x10, 0x00, 0x00, 0x00,
  0x03, 0x00, 0x00, 0x00, 0x10, 0x00, 0x00, 0x00, 0x48, 0x00, 0x00, 0x00,
  0x01, 0x00, 0x00, 0x00, 0x10, 0x00, 0x00, 0x00, 0x33, 0x00, 0x00, 0x00,
  0x73, 0x65, 0x71, 0x75, 0x65, 0x6e, 0x74, 0x69, 0x61, 0x6c, 0x2f, 0x63,
  0x6f, 0x6e, 0x76, 0x32, 0x64, 0x5f, 0x31, 0x2f, 0x42, 0x69, 0x61, 0x73,
  0x41, 0x64, 0x64, 0x2f, 0x52, 0x65, 0x61, 0x64, 0x56, 0x61, 0x72, 0x69,
  0x61, 0x62, 0x6c, 0x65, 0x4f, 0x70, 0x2f, 0x72, 0x65, 0x73, 0x6f, 0x75,
  0x72, 0x63, 0x65, 0x00, 0x04, 0x00, 0x06, 0x00, 0x04, 0x00, 0x00, 0x00,
  0x00, 0x00, 0x06, 0x00, 0x08, 0x00, 0x04, 0x00, 0x06, 0x00, 0x00, 0x00,
  0x04, 0x00, 0x00, 0x00, 0x20, 0x00, 0x00, 0x00, 0xbc, 0xaf, 0x09, 0x3d,
  0x91, 0xb1, 0x95, 0x3d, 0x92, 0x2f, 0x19, 0x3d, 0xb0, 0x31, 0x1d, 0x3d,
  0x89, 0xf9, 0x80, 0x3d, 0xba, 0x78, 0x0d, 0xbb, 0x24, 0xe7, 0xb0, 0xbd,
  0xcb, 0x04, 0x96, 0x3d, 0x00, 0x00, 0x0e, 0x00, 0x14, 0x00, 0x04, 0x00,
  0x00, 0x00, 0x08, 0x00, 0x0c, 0x00, 0x10, 0x00, 0x0e, 0x00, 0x00, 0x00,
  0x10, 0x00, 0x00, 0x00, 0x02, 0x00, 0x00, 0x00, 0x10, 0x00, 0x00, 0x00,
  0x44, 0x00, 0x00, 0x00, 0x01, 0x00, 0x00, 0x00, 0x08, 0x00, 0x00, 0x00,
  0x31, 0x00, 0x00, 0x00, 0x73, 0x65, 0x71, 0x75, 0x65, 0x6e, 0x74, 0x69,
  0x61, 0x6c, 0x2f, 0x63, 0x6f, 0x6e, 0x76, 0x32, 0x64, 0x2f, 0x42, 0x69,
  0x61, 0x73, 0x41, 0x64, 0x64, 0x2f, 0x52, 0x65, 0x61, 0x64, 0x56, 0x61,
  0x72, 0x69, 0x61, 0x62, 0x6c, 0x65, 0x4f, 0x70, 0x2f, 0x72, 0x65, 0x73,
  0x6f, 0x75, 0x72, 0x63, 0x65, 0x00, 0x00, 0x00, 0x90, 0xff, 0xff, 0xff,
  0x14, 0x00, 0x18, 0x00, 0x04, 0x00, 0x00, 0x00, 0x08, 0x00, 0x0c, 0x00,
  0x10, 0x00, 0x00, 0x00, 0x00, 0x00, 0x14, 0x00, 0x14, 0x00, 0x00, 0x00,
  0x14, 0x00, 0x00, 0x00, 0x01, 0x00, 0x00, 0x00, 0x20, 0x00, 0x00, 0x00,
  0x44, 0x00, 0x00, 0x00, 0x2c, 0x00, 0x00, 0x00, 0x04, 0x00, 0x00, 0x00,
  0x01, 0x00, 0x00, 0x00, 0x40, 0x00, 0x00, 0x00, 0x03, 0x00, 0x00, 0x00,
  0x01, 0x00, 0x00, 0x00, 0x0c, 0x00, 0x00, 0x00, 0x63, 0x6f, 0x6e, 0x76,
  0x32, 0x64, 0x5f, 0x69, 0x6e, 0x70, 0x75, 0x74, 0x00, 0x00, 0x00, 0x00,
  0x04, 0x00, 0x00, 0x00, 0xff, 0xff, 0xff, 0xff, 0x40, 0x00, 0x00, 0x00,
  0x03, 0x00, 0x00, 0x00, 0x01, 0x00, 0x00, 0x00, 0xfc, 0xff, 0xff, 0xff,
  0x04, 0x00, 0x04, 0x00, 0x04, 0x00, 0x00, 0x00
  // Paste the data of the char array in `src/model.cc` here

};


unsigned int model_tflite_len = 13052;// Fill the int in `src/model.cc` here

