#include "magic_wand_model_data.h"


// We need to keep the data array aligned on some architectures.

#ifdef __has_attribute

#define HAVE_ATTRIBUTE(x) __has_attribute(x)

#else

#define HAVE_ATTRIBUTE(x) 0

#endif

#if HAVE_ATTRIBUTE(aligned) || (defined(__GNUC__) && !defined(__clang__))

#define DATA_ALIGN_ATTRIBUTE __attribute__((aligned(4)))

#else

#define DATA_ALIGN_ATTRIBUTE

#endif


const unsigned char g_magic_wand_model_data[] DATA_ALIGN_ATTRIBUTE = {
     0x1c, 0x00, 0x00, 0x00, 0x54, 0x46, 0x4c, 0x33, 0x14, 0x00, 0x20, 0x00,
  0x04, 0x00, 0x08, 0x00, 0x0c, 0x00, 0x10, 0x00, 0x14, 0x00, 0x00, 0x00,
  0x18, 0x00, 0x1c, 0x00, 0x14, 0x00, 0x00, 0x00, 0x03, 0x00, 0x00, 0x00,
  0x18, 0x00, 0x00, 0x00, 0x2c, 0x00, 0x00, 0x00, 0xd8, 0x00, 0x00, 0x00,
  0x2c, 0x00, 0x00, 0x00, 0x80, 0x00, 0x00, 0x00, 0x78, 0x00, 0x00, 0x00,
  0x05, 0x00, 0x00, 0x00, 0x28, 0x07, 0x00, 0x00, 0x44, 0x06, 0x00, 0x00,
  0xbc, 0x03, 0x00, 0x00, 0xf8, 0x02, 0x00, 0x00, 0xac, 0x01, 0x00, 0x00,
  0x01, 0x00, 0x00, 0x00, 0xd0, 0x00, 0x00, 0x00, 0x14, 0x00, 0x00, 0x00,
  0x98, 0x32, 0x00, 0x00, 0x94, 0x32, 0x00, 0x00, 0x8c, 0x31, 0x00, 0x00,
  0xd8, 0x30, 0x00, 0x00, 0x30, 0x30, 0x00, 0x00, 0xbc, 0x2f, 0x00, 0x00,
  0x50, 0x2f, 0x00, 0x00, 0x00, 0x13, 0x00, 0x00, 0xec, 0x11, 0x00, 0x00,
  0x10, 0x10, 0x00, 0x00, 0xb4, 0x07, 0x00, 0x00, 0x6c, 0x32, 0x00, 0x00,
  0x68, 0x32, 0x00, 0x00, 0x64, 0x32, 0x00, 0x00, 0x60, 0x32, 0x00, 0x00,
  0x5c, 0x32, 0x00, 0x00, 0x58, 0x32, 0x00, 0x00, 0x54, 0x32, 0x00, 0x00,
  0x50, 0x32, 0x00, 0x00, 0x3c, 0x00, 0x00, 0x00, 0x00, 0x00, 0x00, 0x00,
  0x01, 0x00, 0x00, 0x00, 0x0c, 0x00, 0x00, 0x00, 0x08, 0x00, 0x0c, 0x00,
  0x04, 0x00, 0x08, 0x00, 0x08, 0x00, 0x00, 0x00, 0x08, 0x00, 0x00, 0x00,
  0x13, 0x00, 0x00, 0x00, 0x13, 0x00, 0x00, 0x00, 0x6d, 0x69, 0x6e, 0x5f,
  0x72, 0x75, 0x6e, 0x74, 0x69, 0x6d, 0x65, 0x5f, 0x76, 0x65, 0x72, 0x73,
  0x69, 0x6f, 0x6e, 0x00, 0xfa, 0xce, 0xff, 0xff, 0x04, 0x00, 0x00, 0x00,
  0x10, 0x00, 0x00, 0x00, 0x31, 0x2e, 0x35, 0x2e, 0x30, 0x00, 0x00, 0x00,
  0x00, 0x00, 0x00, 0x00, 0x00, 0x00, 0x00, 0x00, 0x0f, 0x00, 0x00, 0x00,
  0x4d, 0x4c, 0x49, 0x52, 0x20, 0x43, 0x6f, 0x6e, 0x76, 0x65, 0x72, 0x74,
  0x65, 0x64, 0x2e, 0x00, 0x00, 0x00, 0x0e, 0x00, 0x18, 0x00, 0x04, 0x00,
  0x08, 0x00, 0x0c, 0x00, 0x10, 0x00, 0x14, 0x00, 0x0e, 0x00, 0x00, 0x00,
  0x14, 0x00, 0x00, 0x00, 0x5c, 0x00, 0x00, 0x00, 0x60, 0x00, 0x00, 0x00,
  0x64, 0x00, 0x00, 0x00, 0x84, 0x00, 0x00, 0x00, 0x12, 0x00, 0x00, 0x00,
  0x58, 0x31, 0x00, 0x00, 0xe8, 0x30, 0x00, 0x00, 0x44, 0x30, 0x00, 0x00,
  0x9c, 0x2f, 0x00, 0x00, 0xf4, 0x2e, 0x00, 0x00, 0x94, 0x2e, 0x00, 0x00,
  0x2c, 0x2e, 0x00, 0x00, 0xd8, 0x11, 0x00, 0x00, 0xbc, 0x10, 0x00, 0x00,
  0xe0, 0x0e, 0x00, 0x00, 0x0c, 0x06, 0x00, 0x00, 0x28, 0x05, 0x00, 0x00,
  0xe8, 0x03, 0x00, 0x00, 0x3c, 0x03, 0x00, 0x00, 0x98, 0x02, 0x00, 0x00,
  0xd4, 0x01, 0x00, 0x00, 0x10, 0x01, 0x00, 0x00, 0x84, 0x00, 0x00, 0x00,
  0x01, 0x00, 0x00, 0x00, 0x00, 0x00, 0x00, 0x00, 0x01, 0x00, 0x00, 0x00,
  0x11, 0x00, 0x00, 0x00, 0x08, 0x00, 0x00, 0x00, 0x74, 0x05, 0x00, 0x00,
  0x94, 0x04, 0x00, 0x00, 0x78, 0x03, 0x00, 0x00, 0xbc, 0x02, 0x00, 0x00,
  0x30, 0x02, 0x00, 0x00, 0x50, 0x01, 0x00, 0x00, 0xa8, 0x00, 0x00, 0x00,
  0x10, 0x00, 0x00, 0x00, 0x04, 0x00, 0x00, 0x00, 0x6d, 0x61, 0x69, 0x6e,
  0x00, 0x00, 0x00, 0x00, 0x7a, 0xff, 0xff, 0xff, 0x00, 0x00, 0x00, 0x09,
  0x04, 0x00, 0x00, 0x00, 0x1c, 0x00, 0x00, 0x00, 0x10, 0x00, 0x00, 0x00,
  0x04, 0x00, 0x00, 0x00, 0xf6, 0xcf, 0xff, 0xff, 0x00, 0x00, 0x80, 0x3f,
  0x01, 0x00, 0x00, 0x00, 0x11, 0x00, 0x00, 0x00, 0x01, 0x00, 0x00, 0x00,
  0x10, 0x00, 0x00, 0x00, 0xa0, 0xfa, 0xff, 0xff, 0x19, 0x00, 0x00, 0x00,
  0x00, 0x00, 0x00, 0x19, 0x01, 0x00, 0x00, 0x00, 0x84, 0xcf, 0xff, 0xff,
  0x14, 0x00, 0x00, 0x00, 0x12, 0x00, 0x00, 0x00, 0x18, 0x00, 0x00, 0x00,
  0x30, 0x00, 0x00, 0x00, 0x20, 0x00, 0x00, 0x00, 0x02, 0x00, 0x00, 0x00,
  0x01, 0x00, 0x00, 0x00, 0x03, 0x00, 0x00, 0x00, 0x08, 0x00, 0x00, 0x00,
  0x49, 0x64, 0x65, 0x6e, 0x74, 0x69, 0x74, 0x79, 0x00, 0x00, 0x00, 0x00,
  0x02, 0x00, 0x00, 0x00, 0xff, 0xff, 0xff, 0xff, 0x03, 0x00, 0x00, 0x00,
  0x68, 0xd0, 0xff, 0xff, 0x00, 0x00, 0x0e, 0x00, 0x18, 0x00, 0x08, 0x00,
  0x0c, 0x00, 0x10, 0x00, 0x07, 0x00, 0x14, 0x00, 0x0e, 0x00, 0x00, 0x00,
  0x00, 0x00, 0x00, 0x08, 0x03, 0x00, 0x00, 0x00, 0x18, 0x00, 0x00, 0x00,
  0x0c, 0x00, 0x00, 0x00, 0x04, 0x00, 0x00, 0x00, 0x84, 0xcf, 0xff, 0xff,
  0x01, 0x00, 0x00, 0x00, 0x10, 0x00, 0x00, 0x00, 0x03, 0x00, 0x00, 0x00,
  0x0f, 0x00, 0x00, 0x00, 0x07, 0x00, 0x00, 0x00, 0x04, 0x00, 0x00, 0x00,
  0x0c, 0xd0, 0xff, 0xff, 0x14, 0x00, 0x00, 0x00, 0x11, 0x00, 0x00, 0x00,
  0x18, 0x00, 0x00, 0x00, 0x5c, 0x00, 0x00, 0x00, 0x4c, 0x00, 0x00, 0x00,
  0x02, 0x00, 0x00, 0x00, 0x01, 0x00, 0x00, 0x00, 0x03, 0x00, 0x00, 0x00,
  0x34, 0x00, 0x00, 0x00, 0x73, 0x65, 0x71, 0x75, 0x65, 0x6e, 0x74, 0x69,
  0x61, 0x6c, 0x2f, 0x64, 0x65, 0x6e, 0x73, 0x65, 0x5f, 0x31, 0x2f, 0x4d,
  0x61, 0x74, 0x4d, 0x75, 0x6c, 0x3b, 0x73, 0x65, 0x71, 0x75, 0x65, 0x6e,
  0x74, 0x69, 0x61, 0x6c, 0x2f, 0x64, 0x65, 0x6e, 0x73, 0x65, 0x5f, 0x31,
  0x2f, 0x42, 0x69, 0x61, 0x73, 0x41, 0x64, 0x64, 0x00, 0x00, 0x00, 0x00,
  0x02, 0x00, 0x00, 0x00, 0xff, 0xff, 0xff, 0xff, 0x03, 0x00, 0x00, 0x00,
  0x0c, 0xd0, 0xff, 0xff, 0xda, 0xfc, 0xff, 0xff, 0x00, 0x00, 0x00, 0x08,
  0x03, 0x00, 0x00, 0x00, 0x24, 0x00, 0x00, 0x00, 0x18, 0x00, 0x00, 0x00,
  0x0c, 0x00, 0x00, 0x00, 0x00, 0x00, 0x06, 0x00, 0x08, 0x00, 0x07, 0x00,
  0x06, 0x00, 0x00, 0x00, 0x00, 0x00, 0x00, 0x01, 0x01, 0x00, 0x00, 0x00,
  0x0f, 0x00, 0x00, 0x00, 0x03, 0x00, 0x00, 0x00, 0x0e, 0x00, 0x00, 0x00,
  0x06, 0x00, 0x00, 0x00, 0x03, 0x00, 0x00, 0x00, 0xe8, 0xfb, 0xff, 0xff,
  0x09, 0x00, 0x00, 0x00, 0x00, 0x00, 0x00, 0x09, 0x01, 0x00, 0x00, 0x00,
  0xcc, 0xd0, 0xff, 0xff, 0x14, 0x00, 0x00, 0x00, 0x10, 0x00, 0x00, 0x00,
  0x18, 0x00, 0x00, 0x00, 0x6c, 0x00, 0x00, 0x00, 0x5c, 0x00, 0x00, 0x00,
  0x02, 0x00, 0x00, 0x00, 0x01, 0x00, 0x00, 0x00, 0x10, 0x00, 0x00, 0x00,
  0x46, 0x00, 0x00, 0x00, 0x73, 0x65, 0x71, 0x75, 0x65, 0x6e, 0x74, 0x69,
  0x61, 0x6c, 0x2f, 0x64, 0x65, 0x6e, 0x73, 0x65, 0x2f, 0x4d, 0x61, 0x74,
  0x4d, 0x75, 0x6c, 0x3b, 0x73, 0x65, 0x71, 0x75, 0x65, 0x6e, 0x74, 0x69,
  0x61, 0x6c, 0x2f, 0x64, 0x65, 0x6e, 0x73, 0x65, 0x2f, 0x52, 0x65, 0x6c,
  0x75, 0x3b, 0x73, 0x65, 0x71, 0x75, 0x65, 0x6e, 0x74, 0x69, 0x61, 0x6c,
  0x2f, 0x64, 0x65, 0x6e, 0x73, 0x65, 0x2f, 0x42, 0x69, 0x61, 0x73, 0x41,
  0x64, 0x64, 0x00, 0x00, 0x02, 0x00, 0x00, 0x00, 0xff, 0xff, 0xff, 0xff,
  0x10, 0x00, 0x00, 0x00, 0xec, 0xd1, 0xff, 0xff, 0x00, 0x00, 0x0a, 0x00,
  0x10, 0x00, 0x04, 0x00, 0x08, 0x00, 0x0c, 0x00, 0x0a, 0x00, 0x00, 0x00,
  0x02, 0x00, 0x00, 0x00, 0x10, 0x00, 0x00, 0x00, 0x04, 0x00, 0x00, 0x00,
  0x01, 0x00, 0x00, 0x00, 0x0e, 0x00, 0x00, 0x00, 0x02, 0x00, 0x00, 0x00,
  0x0d, 0x00, 0x00, 0x00, 0x05, 0x00, 0x00, 0x00, 0xa8, 0xfc, 0xff, 0xff,
  0x16, 0x00, 0x00, 0x00, 0x00, 0x00, 0x00, 0x16, 0x01, 0x00, 0x00, 0x00,
  0x8c, 0xd1, 0xff, 0xff, 0x14, 0x00, 0x00, 0x00, 0x0f, 0x00, 0x00, 0x00,
  0x18, 0x00, 0x00, 0x00, 0x40, 0x00, 0x00, 0x00, 0x30, 0x00, 0x00, 0x00,
  0x02, 0x00, 0x00, 0x00, 0x01, 0x00, 0x00, 0x00, 0x70, 0x00, 0x00, 0x00,
  0x1a, 0x00, 0x00, 0x00, 0x73, 0x65, 0x71, 0x75, 0x65, 0x6e, 0x74, 0x69,
  0x61, 0x6c, 0x2f, 0x66, 0x6c, 0x61, 0x74, 0x74, 0x65, 0x6e, 0x2f, 0x52,
  0x65, 0x73, 0x68, 0x61, 0x70, 0x65, 0x00, 0x00, 0x02, 0x00, 0x00, 0x00,
  0xff, 0xff, 0xff, 0xff, 0x70, 0x00, 0x00, 0x00, 0x70, 0xd1, 0xff, 0xff,
  0x3e, 0xfe, 0xff, 0xff, 0x00, 0x00, 0x00, 0x05, 0x01, 0x00, 0x00, 0x00,
  0x38, 0x00, 0x00, 0x00, 0x2c, 0x00, 0x00, 0x00, 0x14, 0x00, 0x00, 0x00,
  0x00, 0x00, 0x0e, 0x00, 0x14, 0x00, 0x00, 0x00, 0x10, 0x00, 0x0c, 0x00,
  0x08, 0x00, 0x04, 0x00, 0x0e, 0x00, 0x00, 0x00, 0x03, 0x00, 0x00, 0x00,
  0x01, 0x00, 0x00, 0x00, 0x03, 0x00, 0x00, 0x00, 0x01, 0x00, 0x00, 0x00,
  0x01, 0x00, 0x00, 0x00, 0x0d, 0x00, 0x00, 0x00, 0x01, 0x00, 0x00, 0x00,
  0x0c, 0x00, 0x00, 0x00, 0x2c, 0xd2, 0xff, 0xff, 0x14, 0x00, 0x00, 0x00,
  0x0e, 0x00, 0x00, 0x00, 0x20, 0x00, 0x00, 0x00, 0x58, 0x00, 0x00, 0x00,
  0x40, 0x00, 0x00, 0x00, 0x04, 0x00, 0x00, 0x00, 0x01, 0x00, 0x00, 0x00,
  0x07, 0x00, 0x00, 0x00, 0x01, 0x00, 0x00, 0x00, 0x10, 0x00, 0x00, 0x00,
  0x22, 0x00, 0x00, 0x00, 0x73, 0x65, 0x71, 0x75, 0x65, 0x6e, 0x74, 0x69,
  0x61, 0x6c, 0x2f, 0x6d, 0x61, 0x78, 0x5f, 0x70, 0x6f, 0x6f, 0x6c, 0x69,
  0x6e, 0x67, 0x32, 0x64, 0x5f, 0x31, 0x2f, 0x4d, 0x61, 0x78, 0x50, 0x6f,
  0x6f, 0x6c, 0x00, 0x00, 0x04, 0x00, 0x00, 0x00, 0xff, 0xff, 0xff, 0xff,
  0x07, 0x00, 0x00, 0x00, 0x01, 0x00, 0x00, 0x00, 0x10, 0x00, 0x00, 0x00,
  0x28, 0xd2, 0xff, 0xff, 0x1a, 0xfe, 0xff, 0xff, 0x00, 0x00, 0x00, 0x01,
  0x24, 0x00, 0x00, 0x00, 0x18, 0x00, 0x00, 0x00, 0x04, 0x00, 0x00, 0x00,
  0x0c, 0xfe, 0xff, 0xff, 0x01, 0x00, 0x00, 0x00, 0x01, 0x00, 0x00, 0x00,
  0x00, 0x00, 0x00, 0x01, 0x01, 0x00, 0x00, 0x00, 0x0c, 0x00, 0x00, 0x00,
  0x03, 0x00, 0x00, 0x00, 0x0b, 0x00, 0x00, 0x00, 0x09, 0x00, 0x00, 0x00,
  0x02, 0x00, 0x00, 0x00, 0xd4, 0xd2, 0xff, 0xff, 0x14, 0x00, 0x00, 0x00,
  0x0d, 0x00, 0x00, 0x00, 0x20, 0x00, 0x00, 0x00, 0xb8, 0x00, 0x00, 0x00,
  0xa0, 0x00, 0x00, 0x00, 0x04, 0x00, 0x00, 0x00, 0x01, 0x00, 0x00, 0x00,
  0x15, 0x00, 0x00, 0x00, 0x01, 0x00, 0x00, 0x00, 0x10, 0x00, 0x00, 0x00,
  0x83, 0x00, 0x00, 0x00, 0x73, 0x65, 0x71, 0x75, 0x65, 0x6e, 0x74, 0x69,
  0x61, 0x6c, 0x2f, 0x63, 0x6f, 0x6e, 0x76, 0x32, 0x64, 0x5f, 0x31, 0x2f,
  0x52, 0x65, 0x6c, 0x75, 0x3b, 0x73, 0x65, 0x71, 0x75, 0x65, 0x6e, 0x74,
  0x69, 0x61, 0x6c, 0x2f, 0x63, 0x6f, 0x6e, 0x76, 0x32, 0x64, 0x5f, 0x31,
  0x2f, 0x42, 0x69, 0x61, 0x73, 0x41, 0x64, 0x64, 0x3b, 0x73, 0x65, 0x71,
  0x75, 0x65, 0x6e, 0x74, 0x69, 0x61, 0x6c, 0x2f, 0x63, 0x6f, 0x6e, 0x76,
  0x32, 0x64, 0x5f, 0x31, 0x2f, 0x43, 0x6f, 0x6e, 0x76, 0x32, 0x44, 0x3b,
  0x73, 0x65, 0x71, 0x75, 0x65, 0x6e, 0x74, 0x69, 0x61, 0x6c, 0x2f, 0x63,
  0x6f, 0x6e, 0x76, 0x32, 0x64, 0x5f, 0x31, 0x2f, 0x42, 0x69, 0x61, 0x73,
  0x41, 0x64, 0x64, 0x2f, 0x52, 0x65, 0x61, 0x64, 0x56, 0x61, 0x72, 0x69,
  0x61, 0x62, 0x6c, 0x65, 0x4f, 0x70, 0x2f, 0x72, 0x65, 0x73, 0x6f, 0x75,
  0x72, 0x63, 0x65, 0x00, 0x04, 0x00, 0x00, 0x00, 0xff, 0xff, 0xff, 0xff,
  0x15, 0x00, 0x00, 0x00, 0x01, 0x00, 0x00, 0x00, 0x10, 0x00, 0x00, 0x00,
  0x40, 0xd4, 0xff, 0xff, 0x00, 0x00, 0x0e, 0x00, 0x1a, 0x00, 0x08, 0x00,
  0x0c, 0x00, 0x10, 0x00, 0x07, 0x00, 0x14, 0x00, 0x0e, 0x00, 0x00, 0x00,
  0x00, 0x00, 0x00, 0x05, 0x01, 0x00, 0x00, 0x00, 0x3c, 0x00, 0x00, 0x00,
  0x30, 0x00, 0x00, 0x00, 0x14, 0x00, 0x00, 0x00, 0x00, 0x00, 0x0e, 0x00,
  0x18, 0x00, 0x17, 0x00, 0x10, 0x00, 0x0c, 0x00, 0x08, 0x00, 0x04, 0x00,
  0x0e, 0x00, 0x00, 0x00, 0x03, 0x00, 0x00, 0x00, 0x03, 0x00, 0x00, 0x00,
  0x03, 0x00, 0x00, 0x00, 0x03, 0x00, 0x00, 0x00, 0x00, 0x00, 0x00, 0x01,
  0x01, 0x00, 0x00, 0x00, 0x0b, 0x00, 0x00, 0x00, 0x01, 0x00, 0x00, 0x00,
  0x0a, 0x00, 0x00, 0x00, 0x2c, 0xff, 0xff, 0xff, 0x11, 0x00, 0x00, 0x00,
  0x00, 0x00, 0x00, 0x11, 0x01, 0x00, 0x00, 0x00, 0x10, 0xd4, 0xff, 0xff,
  0x14, 0x00, 0x00, 0x00, 0x0c, 0x00, 0x00, 0x00, 0x20, 0x00, 0x00, 0x00,
  0x58, 0x00, 0x00, 0x00, 0x40, 0x00, 0x00, 0x00, 0x04, 0x00, 0x00, 0x00,
  0x01, 0x00, 0x00, 0x00, 0x15, 0x00, 0x00, 0x00, 0x01, 0x00, 0x00, 0x00,
  0x08, 0x00, 0x00, 0x00, 0x20, 0x00, 0x00, 0x00, 0x73, 0x65, 0x71, 0x75,
  0x65, 0x6e, 0x74, 0x69, 0x61, 0x6c, 0x2f, 0x6d, 0x61, 0x78, 0x5f, 0x70,
  0x6f, 0x6f, 0x6c, 0x69, 0x6e, 0x67, 0x32, 0x64, 0x2f, 0x4d, 0x61, 0x78,
  0x50, 0x6f, 0x6f, 0x6c, 0x00, 0x00, 0x00, 0x00, 0x04, 0x00, 0x00, 0x00,
  0xff, 0xff, 0xff, 0xff, 0x15, 0x00, 0x00, 0x00, 0x01, 0x00, 0x00, 0x00,
  0x08, 0x00, 0x00, 0x00, 0x1c, 0xd5, 0xff, 0xff, 0x00, 0x00, 0x0e, 0x00,
  0x14, 0x00, 0x00, 0x00, 0x08, 0x00, 0x0c, 0x00, 0x07, 0x00, 0x10, 0x00,
  0x0e, 0x00, 0x00, 0x00, 0x00, 0x00, 0x00, 0x01, 0x30, 0x00, 0x00, 0x00,
  0x24, 0x00, 0x00, 0x00, 0x10, 0x00, 0x00, 0x00, 0x0c, 0x00, 0x10, 0x00,
  0x00, 0x00, 0x04, 0x00, 0x08, 0x00, 0x0f, 0x00, 0x0c, 0x00, 0x00, 0x00,
  0x01, 0x00, 0x00, 0x00, 0x01, 0x00, 0x00, 0x00, 0x00, 0x00, 0x00, 0x01,
  0x01, 0x00, 0x00, 0x00, 0x0a, 0x00, 0x00, 0x00, 0x03, 0x00, 0x00, 0x00,
  0x00, 0x00, 0x00, 0x00, 0x08, 0x00, 0x00, 0x00, 0x01, 0x00, 0x00, 0x00,
  0x0c, 0x00, 0x10, 0x00, 0x0b, 0x00, 0x00, 0x00, 0x0c, 0x00, 0x04, 0x00,
  0x0c, 0x00, 0x00, 0x00, 0x03, 0x00, 0x00, 0x00, 0x00, 0x00, 0x00, 0x03,
  0x01, 0x00, 0x00, 0x00, 0xf0, 0xd4, 0xff, 0xff, 0x14, 0x00, 0x00, 0x00,
  0x0b, 0x00, 0x00, 0x00, 0x20, 0x00, 0x00, 0x00, 0xb0, 0x00, 0x00, 0x00,
  0x98, 0x00, 0x00, 0x00, 0x04, 0x00, 0x00, 0x00, 0x01, 0x00, 0x00, 0x00,
  0x40, 0x00, 0x00, 0x00, 0x03, 0x00, 0x00, 0x00, 0x08, 0x00, 0x00, 0x00,
  0x7b, 0x00, 0x00, 0x00, 0x73, 0x65, 0x71, 0x75, 0x65, 0x6e, 0x74, 0x69,
  0x61, 0x6c, 0x2f, 0x63, 0x6f, 0x6e, 0x76, 0x32, 0x64, 0x2f, 0x52, 0x65,
  0x6c, 0x75, 0x3b, 0x73, 0x65, 0x71, 0x75, 0x65, 0x6e, 0x74, 0x69, 0x61,
  0x6c, 0x2f, 0x63, 0x6f, 0x6e, 0x76, 0x32, 0x64, 0x2f, 0x42, 0x69, 0x61,
  0x73, 0x41, 0x64, 0x64, 0x3b, 0x73, 0x65, 0x71, 0x75, 0x65, 0x6e, 0x74,
  0x69, 0x61, 0x6c, 0x2f, 0x63, 0x6f, 0x6e, 0x76, 0x32, 0x64, 0x2f, 0x43,
  0x6f, 0x6e, 0x76, 0x32, 0x44, 0x3b, 0x73, 0x65, 0x71, 0x75, 0x65, 0x6e,
  0x74, 0x69, 0x61, 0x6c, 0x2f, 0x63, 0x6f, 0x6e, 0x76, 0x32, 0x64, 0x2f,
  0x42, 0x69, 0x61, 0x73, 0x41, 0x64, 0x64, 0x2f, 0x52, 0x65, 0x61, 0x64,
  0x56, 0x61, 0x72, 0x69, 0x61, 0x62, 0x6c, 0x65, 0x4f, 0x70, 0x2f, 0x72,
  0x65, 0x73, 0x6f, 0x75, 0x72, 0x63, 0x65, 0x00, 0x04, 0x00, 0x00, 0x00,
  0xff, 0xff, 0xff, 0xff, 0x40, 0x00, 0x00, 0x00, 0x03, 0x00, 0x00, 0x00,
  0x08, 0x00, 0x00, 0x00, 0x44, 0xd5, 0xff, 0xff, 0x4e, 0xd6, 0xff, 0xff,
  0x04, 0x00, 0x00, 0x00, 0x00, 0x08, 0x00, 0x00, 0x8c, 0xe0, 0x47, 0x3d,
  0x0c, 0x83, 0x8b, 0xbb, 0xdf, 0x43, 0x59, 0x3e, 0x0e, 0xa1, 0x50, 0xbb,
  0x8c, 0x60, 0x8a, 0x3e, 0xab, 0xb0, 0x6a, 0xbd, 0x0b, 0xb9, 0x3b, 0xbe,
  0x0d, 0x97, 0x97, 0x3e, 0xef, 0x07, 0xe7, 0xbd, 0x79, 0xac, 0x47, 0x3e,
  0x51, 0xb5, 0x23, 0xbe, 0x7b, 0xa2, 0xc0, 0x3d, 0x73, 0xe6, 0x7d, 0x3e,
  0xbf, 0x8f, 0x26, 0xbe, 0x02, 0x5d, 0x95, 0x3d, 0xe4, 0x68, 0xb9, 0x3d,
  0x38, 0x5b, 0x69, 0x3e, 0xdb, 0xba, 0x31, 0x3e, 0x94, 0xb4, 0x0c, 0xbd,
  0x2c, 0xfc, 0x81, 0x3e, 0xde, 0x0e, 0xab, 0x3e, 0xdc, 0x2e, 0x70, 0xbc,
  0x98, 0x4b, 0xcf, 0x3c, 0x74, 0xc1, 0x3c, 0x3e, 0xb6, 0x0a, 0x7d, 0x3e,
  0x11, 0x56, 0xbf, 0x3e, 0x90, 0x68, 0x61, 0xbd, 0x0c, 0xf7, 0xfe, 0xbd,
  0x32, 0x95, 0xfd, 0x3d, 0xd2, 0xbe, 0x8c, 0x3e, 0xa9, 0xdb, 0xef, 0xbd,
  0x7f, 0x67, 0xa7, 0xbd, 0xd9, 0xaa, 0x45, 0xbe, 0xcf, 0xde, 0x98, 0xbd,
  0x66, 0x8d, 0xf9, 0xbd, 0x01, 0x6b, 0x83, 0x3d, 0xfd, 0x56, 0x60, 0xbe,
  0x76, 0x30, 0x1d, 0x3e, 0xa2, 0x83, 0x38, 0x3e, 0xb6, 0xd5, 0x07, 0x3e,
  0x21, 0x13, 0xa5, 0x3d, 0xd3, 0xb1, 0x78, 0x3d, 0x7d, 0x34, 0xe5, 0xbc,
  0x6c, 0xcf, 0x11, 0x3e, 0xea, 0xb5, 0x8c, 0x3d, 0x77, 0x58, 0x49, 0xbe,
  0xc3, 0x52, 0x20, 0x3d, 0x53, 0x6e, 0xb7, 0xbc, 0x96, 0x4b, 0x2c, 0x3e,
  0x0e, 0x01, 0x40, 0x3d, 0x65, 0x8b, 0x54, 0x3e, 0x99, 0xdd, 0x41, 0x3e,
  0x8e, 0x0a, 0x4f, 0x3e, 0x6b, 0xd3, 0x54, 0x3e, 0x09, 0x03, 0x84, 0xbe,
  0x94, 0x46, 0x9e, 0x3d, 0xba, 0x22, 0x23, 0xbe, 0x0b, 0xd4, 0xe9, 0xbd,
  0x8f, 0xeb, 0x27, 0xbe, 0xf6, 0x5d, 0x4d, 0xbe, 0x88, 0x66, 0x5d, 0x3e,
  0xfe, 0xae, 0x9c, 0x3d, 0x90, 0xd4, 0x9b, 0x3d, 0xf6, 0xc5, 0x25, 0x3e,
  0xc0, 0x78, 0x42, 0x3e, 0xfe, 0xf3, 0x12, 0xbe, 0xb6, 0x9e, 0x56, 0x3d,
  0x3d, 0x1c, 0x99, 0x3e, 0x14, 0xe5, 0x9f, 0x3e, 0x2f, 0xaa, 0x06, 0xbe,
  0xda, 0xb5, 0x9d, 0x3e, 0x6d, 0xe0, 0xdb, 0xbd, 0x2a, 0x4c, 0xa5, 0x3e,
  0x0a, 0x74, 0x3b, 0xbe, 0xed, 0x51, 0x45, 0xbd, 0x59, 0x47, 0x49, 0xbb,
  0x4c, 0xce, 0x71, 0x3e, 0x70, 0x46, 0xc5, 0x3d, 0x4e, 0x4f, 0x25, 0x3e,
  0x18, 0x6e, 0x2d, 0xbe, 0xd3, 0xf6, 0x4f, 0x3e, 0xb4, 0x47, 0x7c, 0xbe,
  0x0e, 0x1c, 0x73, 0xbd, 0x11, 0x87, 0x80, 0xbc, 0x23, 0xe1, 0x15, 0xbe,
  0xc9, 0x24, 0x58, 0xbe, 0x77, 0x3a, 0x3f, 0xbe, 0x38, 0x79, 0x5a, 0xbe,
  0xaf, 0x94, 0x08, 0x3c, 0x7f, 0x6c, 0x70, 0xbe, 0xf3, 0x29, 0x48, 0xbe,
  0x4a, 0x08, 0x49, 0x3d, 0xb4, 0x57, 0x86, 0xbd, 0x11, 0x00, 0x73, 0xbe,
  0xf3, 0x69, 0xf6, 0xbd, 0x8f, 0x95, 0x4d, 0xbe, 0xac, 0xf4, 0xe9, 0xbd,
  0xa2, 0xb2, 0xed, 0xbc, 0x6e, 0x8c, 0x2a, 0xbe, 0xe9, 0x16, 0x77, 0x3e,
  0x17, 0xad, 0x99, 0xbd, 0x4b, 0x0f, 0x9b, 0xbb, 0xd7, 0x0a, 0x0b, 0x3e,
  0xf0, 0x8e, 0x97, 0xbe, 0x6f, 0x07, 0xad, 0xbd, 0x99, 0xb6, 0x31, 0x3e,
  0x8e, 0xaf, 0xca, 0x3d, 0x76, 0x7b, 0x7a, 0xbd, 0xa1, 0x0d, 0x13, 0x3d,
  0x78, 0x73, 0x02, 0xbe, 0x19, 0x9f, 0xd1, 0x3d, 0xfa, 0xed, 0xe4, 0x3c,
  0x1d, 0x41, 0xb1, 0x3d, 0x91, 0xad, 0x2a, 0x3e, 0x16, 0x27, 0x07, 0x3d,
  0xd6, 0xff, 0x06, 0xbe, 0x74, 0x1f, 0xfc, 0xbd, 0x49, 0xe9, 0xb1, 0xbd,
  0x60, 0x4d, 0x53, 0xbe, 0x63, 0x22, 0xe0, 0xbc, 0x85, 0xde, 0xbd, 0x3c,
  0xac, 0x99, 0xe3, 0x3d, 0x21, 0x5c, 0x65, 0x3e, 0x4c, 0xa9, 0x2b, 0x3e,
  0x92, 0x1e, 0xf1, 0x3b, 0xe9, 0x95, 0x18, 0x3e, 0xd1, 0x74, 0x5c, 0xbd,
  0x0c, 0x1e, 0xed, 0x3d, 0xda, 0x49, 0xe3, 0x3d, 0xee, 0x37, 0xac, 0xbc,
  0xd5, 0x0f, 0x0c, 0x3e, 0xd8, 0x66, 0x06, 0x3e, 0x24, 0x00, 0xee, 0x3c,
  0x50, 0xd7, 0xbe, 0xbd, 0xe6, 0xdd, 0xe8, 0xbc, 0x55, 0x59, 0x77, 0x3e,
  0xf4, 0x4a, 0x76, 0xbd, 0x59, 0x72, 0x1c, 0xbe, 0x27, 0xaa, 0x50, 0x3d,
  0x47, 0xbe, 0x14, 0x3e, 0xe5, 0x99, 0x69, 0xbe, 0x77, 0x02, 0x1a, 0x3e,
  0xe5, 0xcc, 0xb3, 0x3d, 0x04, 0x84, 0x79, 0x3e, 0x56, 0x95, 0x9f, 0x3e,
  0x38, 0xb7, 0x1b, 0x3e, 0xbf, 0x3d, 0x73, 0xbd, 0xb8, 0xa1, 0xbc, 0x3d,
  0x6c, 0xaf, 0xcb, 0x3d, 0x94, 0xc3, 0x86, 0x3e, 0xe8, 0x07, 0xba, 0xbd,
  0x6d, 0xc0, 0x42, 0x3e, 0x47, 0x97, 0x04, 0x3d, 0xf6, 0x07, 0x88, 0xbe,
  0xd3, 0x35, 0xb9, 0xbd, 0xa6, 0x1a, 0x4f, 0x3e, 0xea, 0xd7, 0x06, 0x3e,
  0x72, 0xa0, 0xbb, 0x3d, 0x2a, 0x6c, 0xc0, 0x3c, 0x68, 0x14, 0x04, 0xbd,
  0x57, 0x16, 0xff, 0xbd, 0xfc, 0xec, 0x1e, 0x3e, 0x8f, 0xe0, 0x24, 0x3e,
  0x33, 0x95, 0x12, 0xbd, 0xb2, 0x87, 0xb8, 0x3d, 0x4c, 0x46, 0x3c, 0xbe,
  0xc5, 0x7c, 0x57, 0x3e, 0x8d, 0x24, 0x15, 0xbd, 0xb6, 0x9a, 0x64, 0xbd,
  0x0b, 0xc8, 0x84, 0x3d, 0x7b, 0x5e, 0x54, 0x3e, 0x98, 0x5d, 0xb5, 0x3c,
  0x8a, 0xe8, 0xc4, 0x3d, 0x9b, 0xef, 0x2a, 0xbe, 0x49, 0xef, 0x16, 0x3e,
  0x43, 0x2b, 0x10, 0xbe, 0x1d, 0x05, 0x73, 0x3d, 0x93, 0xd5, 0xe6, 0x3d,
  0x39, 0x11, 0x3a, 0xbd, 0xfe, 0x55, 0x6c, 0x3d, 0xd3, 0x58, 0x5c, 0xbe,
  0x9b, 0x9c, 0x83, 0xbd, 0x6a, 0xab, 0x28, 0xbd, 0x95, 0x06, 0x50, 0xbe,
  0x77, 0x24, 0x9a, 0x3c, 0xde, 0xec, 0x26, 0x3e, 0x5f, 0xad, 0x34, 0x3e,
  0x4c, 0xa2, 0xc0, 0x3d, 0xe8, 0xb4, 0x4e, 0x3e, 0x5e, 0x25, 0x03, 0x3e,
  0x8f, 0xe6, 0xb2, 0x3d, 0x14, 0x1d, 0x9f, 0xbd, 0xe0, 0x15, 0x45, 0xbe,
  0x88, 0x76, 0x32, 0xbe, 0x8f, 0x67, 0x7a, 0xbe, 0x48, 0x51, 0x1e, 0xbd,
  0x99, 0xbd, 0x8c, 0xbd, 0x72, 0xdf, 0x1a, 0x3c, 0x0c, 0xaa, 0xed, 0xbc,
  0x6d, 0xfa, 0x48, 0x3e, 0x10, 0x0f, 0x5b, 0xbe, 0xb4, 0xf5, 0xf3, 0x3c,
  0x82, 0xf0, 0xb5, 0xbd, 0x79, 0xd0, 0x4d, 0x3e, 0x47, 0x9c, 0x74, 0xbe,
  0x09, 0x6d, 0x71, 0xbe, 0x1f, 0xd5, 0x3e, 0xbe, 0xde, 0x24, 0xec, 0xbc,
  0xdc, 0x50, 0x97, 0x3d, 0x8e, 0x64, 0x1f, 0xbe, 0x8d, 0x9d, 0x4c, 0x3c,
  0xec, 0x9c, 0xce, 0x3d, 0xd3, 0xaa, 0x51, 0xbe, 0x19, 0x1e, 0x4d, 0xbe,
  0x9d, 0xb2, 0xc3, 0x3d, 0xab, 0xae, 0x10, 0xbe, 0x3d, 0x52, 0x6b, 0xbe,
  0x77, 0x8e, 0x2d, 0x3e, 0xe3, 0x94, 0x80, 0xbe, 0xb5, 0xa4, 0x33, 0xbe,
  0x10, 0xae, 0x13, 0xbe, 0x29, 0x2b, 0x45, 0xbd, 0xc3, 0xaf, 0x67, 0xbe,
  0xcf, 0x12, 0x50, 0x3e, 0x88, 0xed, 0xec, 0x3d, 0x3e, 0x4c, 0xdd, 0x3d,
  0xcd, 0x85, 0x8f, 0xbd, 0x33, 0x57, 0x90, 0x3e, 0x1a, 0xa1, 0x36, 0x3e,
  0x52, 0x30, 0x0b, 0xbe, 0x98, 0x8f, 0xb2, 0x3d, 0x5f, 0xfb, 0x16, 0xbd,
  0x73, 0x86, 0x45, 0xbd, 0x36, 0x81, 0x11, 0x3d, 0x3b, 0x3c, 0x00, 0x3e,
  0x25, 0xa1, 0x36, 0xbe, 0xaf, 0xc8, 0x7e, 0x3e, 0xde, 0x03, 0x8b, 0xbd,
  0x6f, 0x11, 0x44, 0xbe, 0x93, 0x80, 0x79, 0x3e, 0x6a, 0xb1, 0x86, 0x3e,
  0x78, 0xc4, 0x4d, 0x3e, 0x55, 0xe4, 0x1a, 0x3c, 0x1e, 0x70, 0xa5, 0xbc,
  0xab, 0x8c, 0x42, 0x3e, 0x42, 0x98, 0x83, 0x3d, 0x00, 0x45, 0xd8, 0x3d,
  0xb8, 0x29, 0x89, 0xbd, 0x5a, 0x3f, 0xfe, 0xbd, 0xcb, 0x18, 0x11, 0x3e,
  0x97, 0x1b, 0x33, 0x3e, 0x34, 0xe8, 0x7c, 0x3e, 0xf9, 0x5f, 0xde, 0xbd,
  0x2b, 0xf4, 0xd5, 0xbd, 0x27, 0xac, 0x2d, 0x3e, 0xfc, 0x04, 0x4c, 0xbd,
  0xf7, 0x91, 0xb6, 0x3c, 0x2e, 0x3f, 0x0b, 0x3e, 0x99, 0xea, 0x9b, 0x3d,
  0x37, 0x1c, 0x10, 0xbe, 0xbd, 0x47, 0x75, 0xbd, 0x31, 0x60, 0x0c, 0xbb,
  0xbf, 0xb3, 0x8d, 0x3c, 0xb6, 0x83, 0x18, 0xbe, 0x5d, 0xac, 0x0e, 0x3e,
  0x55, 0x26, 0x86, 0xbd, 0x53, 0x66, 0x83, 0xbe, 0x26, 0x10, 0x34, 0x3e,
  0xf4, 0x1a, 0x1f, 0xbd, 0x20, 0x6e, 0x46, 0xbd, 0x9c, 0x35, 0x40, 0xbe,
  0x04, 0x83, 0x48, 0xbd, 0x72, 0xf2, 0x5c, 0xbe, 0x04, 0x3b, 0x48, 0xbe,
  0x5f, 0x88, 0x73, 0xbe, 0xcc, 0xe1, 0xac, 0xbd, 0x92, 0x3c, 0x9e, 0xbe,
  0x3d, 0x85, 0x91, 0xbe, 0x98, 0x31, 0x1a, 0x3d, 0x82, 0xc2, 0x0a, 0x3e,
  0x12, 0x16, 0xe1, 0xb9, 0x65, 0xc1, 0xd6, 0x3d, 0x28, 0xe9, 0x5e, 0xbe,
  0x35, 0x27, 0xbb, 0x3d, 0x43, 0x03, 0x0f, 0x3e, 0x0b, 0x25, 0x02, 0xbe,
  0x33, 0x54, 0x16, 0x3e, 0xd2, 0xe5, 0xd5, 0x3c, 0x7a, 0xa0, 0x35, 0xbd,
  0x50, 0xc9, 0x1d, 0x3e, 0x0b, 0x4c, 0x96, 0x3e, 0xa4, 0xf9, 0xc0, 0xbc,
  0xe2, 0xa1, 0x5c, 0xbe, 0x96, 0x97, 0x31, 0xbe, 0x32, 0xb2, 0xd6, 0xbb,
  0x25, 0xa8, 0x26, 0x3e, 0x41, 0x8c, 0x07, 0xbd, 0x39, 0x61, 0x62, 0x3d,
  0x21, 0x13, 0x8f, 0x3e, 0x23, 0x0f, 0x89, 0x3d, 0x1e, 0xf3, 0x31, 0x3c,
  0x62, 0xf0, 0x34, 0x3e, 0x40, 0x44, 0x08, 0x3e, 0x1c, 0x3e, 0x0d, 0x3e,
  0x1a, 0x93, 0x66, 0x3e, 0xb1, 0xc1, 0x33, 0xbe, 0x26, 0x94, 0x46, 0xbe,
  0xec, 0x96, 0x51, 0xbc, 0x7b, 0x91, 0xf4, 0x3d, 0x5e, 0x95, 0xb0, 0x3e,
  0x28, 0x82, 0x81, 0xbe, 0x54, 0x72, 0x64, 0x3d, 0x2b, 0x2c, 0x22, 0x3d,
  0xed, 0x24, 0x4e, 0x3c, 0x31, 0x73, 0x92, 0x3d, 0xac, 0xe1, 0x83, 0x3e,
  0xc9, 0xc0, 0x15, 0x3e, 0x37, 0xbd, 0x6c, 0xbd, 0x67, 0x4d, 0x76, 0x3e,
  0x64, 0x43, 0xd0, 0x3c, 0x1c, 0x48, 0x18, 0x3e, 0xd0, 0x8d, 0x6f, 0x3d,
  0xca, 0x6c, 0x35, 0xbd, 0xfa, 0xe8, 0x1d, 0x3c, 0xbb, 0x57, 0xc3, 0xbe,
  0x18, 0x13, 0x06, 0x3e, 0x29, 0x17, 0x24, 0x3e, 0x59, 0x8c, 0x2f, 0x3e,
  0xe6, 0x10, 0x5a, 0x3d, 0x6a, 0x8a, 0x87, 0xbb, 0x00, 0x84, 0x33, 0x3e,
  0x9e, 0x07, 0x4e, 0xbe, 0x0b, 0x12, 0x08, 0xbe, 0x06, 0x91, 0x84, 0x3e,
  0xb2, 0x2c, 0x98, 0xbd, 0x3a, 0x75, 0x2e, 0xbe, 0xcf, 0x97, 0x92, 0xbe,
  0xe5, 0x4d, 0xc9, 0xbd, 0xb2, 0x4d, 0x5c, 0x3e, 0x87, 0xa6, 0x80, 0xbe,
  0xcd, 0x19, 0x57, 0x3e, 0xb7, 0x2e, 0xae, 0x3d, 0x78, 0x17, 0x03, 0xbe,
  0xbe, 0x62, 0x81, 0xbe, 0x35, 0x2a, 0x88, 0xbe, 0x27, 0xde, 0x28, 0x3e,
  0xe6, 0xed, 0x8e, 0xbd, 0xee, 0xc5, 0xfb, 0x3b, 0xd6, 0xf6, 0x3d, 0xbe,
  0xcd, 0x76, 0xde, 0x3c, 0xeb, 0x33, 0x0a, 0x3e, 0x81, 0xef, 0x9d, 0x3d,
  0x88, 0x0e, 0x12, 0x3e, 0xb4, 0x6f, 0xcf, 0x3d, 0xc2, 0x40, 0x91, 0x3e,
  0x43, 0xf0, 0x42, 0xbc, 0x8f, 0x3f, 0x11, 0xbe, 0x84, 0x9c, 0x21, 0xbe,
  0x2b, 0x6a, 0x83, 0x3e, 0x96, 0xc1, 0x98, 0x3e, 0x28, 0x0e, 0xce, 0xbd,
  0x9d, 0x96, 0x7f, 0xbe, 0xba, 0x80, 0x26, 0x3e, 0x10, 0x94, 0x35, 0x3e,
  0x28, 0x34, 0xa2, 0x3e, 0x87, 0x97, 0x65, 0x3d, 0x01, 0xf3, 0x94, 0xbd,
  0x17, 0xd3, 0x0d, 0xbd, 0xd1, 0x40, 0x61, 0x3e, 0x14, 0xee, 0x9e, 0x3e,
  0x6e, 0x0e, 0xc2, 0x3d, 0xf2, 0x64, 0x99, 0x3e, 0xe4, 0x72, 0x8f, 0x3e,
  0xb1, 0x59, 0x4a, 0xbe, 0x05, 0xc2, 0x1f, 0x3e, 0xbd, 0xa8, 0x19, 0xbc,
  0x24, 0x5a, 0xe8, 0x3d, 0xf0, 0xeb, 0x1e, 0x3d, 0xd3, 0x16, 0x13, 0xbd,
  0x9f, 0xa8, 0xae, 0xbd, 0xe9, 0x66, 0x78, 0xbd, 0x83, 0x73, 0x88, 0x3d,
  0xb1, 0x2d, 0x61, 0x3e, 0x33, 0xd1, 0xc2, 0x3d, 0x20, 0x1e, 0x94, 0xbd,
  0xf2, 0xc5, 0x4f, 0xbe, 0x0a, 0x71, 0xbe, 0xbc, 0x77, 0x7b, 0x07, 0xbe,
  0xa7, 0xf1, 0x48, 0xbe, 0xf6, 0x6f, 0xcd, 0xbd, 0x32, 0xa1, 0xd3, 0xbd,
  0xbd, 0xdd, 0x5c, 0xbc, 0x93, 0x4c, 0xbd, 0x3d, 0x1f, 0x0f, 0x16, 0xbd,
  0x3f, 0xfe, 0x8f, 0x3e, 0x13, 0x81, 0xd6, 0xbd, 0xbc, 0xb4, 0xf8, 0xbd,
  0x00, 0xd8, 0x7b, 0x3e, 0xc1, 0x24, 0xe6, 0x3b, 0x89, 0xbe, 0x8a, 0x3e,
  0x51, 0x97, 0x3d, 0x3e, 0x3a, 0x7d, 0xcc, 0xbd, 0xa3, 0x04, 0x25, 0x3d,
  0xcd, 0xbc, 0x7f, 0xbd, 0x1f, 0x16, 0x89, 0xbd, 0xd1, 0x78, 0xb9, 0x3d,
  0x41, 0x16, 0xe2, 0xbb, 0x0b, 0x7b, 0x16, 0x3e, 0x33, 0x35, 0x79, 0xbd,
  0x09, 0x62, 0x2c, 0x3e, 0x90, 0xb7, 0x8c, 0xbd, 0xe2, 0x46, 0x55, 0x3e,
  0x8b, 0x85, 0x9d, 0x3d, 0x01, 0x7d, 0x88, 0x3d, 0x4d, 0x96, 0xbd, 0xbd,
  0x82, 0x5f, 0x13, 0x3e, 0x7f, 0xd8, 0xb5, 0x3b, 0xa0, 0x93, 0x52, 0xbd,
  0xa8, 0x10, 0x6c, 0xbe, 0xa0, 0xe9, 0x75, 0x3c, 0x21, 0x97, 0xfd, 0x3b,
  0xef, 0xb4, 0x71, 0xbe, 0x82, 0x1a, 0xf0, 0x3d, 0x61, 0xbb, 0x82, 0x3d,
  0xe0, 0x9c, 0x00, 0xbe, 0xe0, 0x30, 0x72, 0xbd, 0x1b, 0x5d, 0xb5, 0xbd,
  0x2d, 0x85, 0x5f, 0xbd, 0x29, 0xe7, 0xe6, 0xbb, 0x7d, 0x83, 0x7e, 0xbd,
  0x7e, 0x3c, 0x61, 0xbe, 0x52, 0x49, 0x37, 0x3e, 0x28, 0xd5, 0x77, 0xbe,
  0x5c, 0x6f, 0x4b, 0xbe, 0x34, 0x4c, 0xa1, 0xb8, 0x20, 0xa7, 0x5d, 0x3e,
  0xca, 0xca, 0x59, 0xbe, 0x9d, 0x03, 0x5d, 0x3e, 0x52, 0xf6, 0x3e, 0xbe,
  0x74, 0x9e, 0x46, 0xbe, 0xe8, 0x12, 0xb9, 0xbd, 0x00, 0x20, 0xc7, 0x39,
  0x60, 0x68, 0x25, 0xbe, 0xd8, 0x53, 0xf9, 0xbd, 0x00, 0x51, 0x6d, 0xbb,
  0xc8, 0x59, 0x86, 0xbd, 0xd8, 0x1f, 0x81, 0xbd, 0x00, 0x66, 0x1b, 0x3c,
  0x8c, 0x1a, 0x79, 0x3d, 0xa7, 0xd7, 0x45, 0x3e, 0xf9, 0xdc, 0xeb, 0xbd,
  0x06, 0xf9, 0x09, 0x3e, 0x84, 0x06, 0x83, 0xbe, 0x9e, 0xbb, 0x48, 0x3e,
  0xc0, 0xcb, 0x54, 0x3e, 0x36, 0xe0, 0x1b, 0xbe, 0x77, 0x37, 0x3f, 0x3e,
  0xc7, 0x91, 0x49, 0x3e, 0x72, 0x89, 0x6e, 0x3e, 0x79, 0xe2, 0x14, 0x3e,
  0xaa, 0xa4, 0xdf, 0xbd, 0x28, 0xdc, 0x04, 0xbe, 0xae, 0x58, 0xf3, 0x3d,
  0x43, 0x57, 0x31, 0x3e, 0x54, 0xea, 0x08, 0xbd, 0x66, 0x22, 0x39, 0xbc,
  0x8b, 0xd2, 0x24, 0x3e, 0x5b, 0xcc, 0x1c, 0xbd, 0x74, 0xca, 0x83, 0x3d,
  0xa3, 0x71, 0xb1, 0xbd, 0x5f, 0x81, 0x5f, 0x3e, 0x9a, 0x40, 0xe8, 0xbd,
  0x0e, 0xb2, 0x66, 0xbe, 0xe5, 0x28, 0x6a, 0x3d, 0xfb, 0x62, 0x91, 0x3e,
  0x7d, 0x31, 0x0b, 0xbe, 0xf5, 0xc0, 0x22, 0xbe, 0x0d, 0x64, 0x3f, 0x3e,
  0x8b, 0xfa, 0x6d, 0x3e, 0xb2, 0x9b, 0xa3, 0xbd, 0x7a, 0x69, 0xdf, 0xbd,
  0x7d, 0x28, 0x63, 0x3e, 0x66, 0x12, 0xee, 0x3d, 0xb8, 0x67, 0x17, 0x3e,
  0x9a, 0x73, 0x5b, 0x3e, 0xa5, 0xec, 0x43, 0x3e, 0x76, 0x7e, 0x07, 0xbd,
  0x33, 0xd1, 0x12, 0x3e, 0x52, 0x04, 0x6c, 0x3e, 0xec, 0x87, 0x99, 0x3c,
  0xc1, 0xf4, 0xed, 0x3c, 0x20, 0x11, 0x91, 0x3e, 0xe7, 0xf4, 0xbf, 0x3e,
  0xb3, 0x86, 0x97, 0x3e, 0x9e, 0x13, 0x6d, 0x3e, 0x7d, 0xb2, 0x26, 0x3e,
  0xbb, 0x4d, 0x7d, 0x3d, 0x08, 0x9c, 0xa9, 0x3c, 0x0e, 0xac, 0xfb, 0x3d,
  0xf2, 0x6b, 0x0a, 0xbe, 0xda, 0xbe, 0x17, 0x3e, 0x37, 0x29, 0x76, 0xbe,
  0x93, 0x4d, 0x23, 0x3e, 0x37, 0xfc, 0x7b, 0x3d, 0x80, 0x80, 0x07, 0x3e,
  0x00, 0x1e, 0x3e, 0x3e, 0xa7, 0x59, 0xb9, 0xbc, 0x14, 0xf5, 0xc1, 0x3d,
  0x2a, 0x28, 0xa4, 0x3e, 0x39, 0xb9, 0x18, 0x3e, 0x7f, 0xcc, 0x28, 0xbd,
  0xd8, 0x13, 0xc4, 0x3c, 0x26, 0xde, 0xff, 0xff, 0x10, 0x00, 0x00, 0x00,
  0x0a, 0x00, 0x00, 0x00, 0x1c, 0x00, 0x00, 0x00, 0x38, 0x00, 0x00, 0x00,
  0x04, 0x00, 0x00, 0x00, 0x10, 0x00, 0x00, 0x00, 0x04, 0x00, 0x00, 0x00,
  0x01, 0x00, 0x00, 0x00, 0x08, 0x00, 0x00, 0x00, 0x1a, 0x00, 0x00, 0x00,
  0x73, 0x65, 0x71, 0x75, 0x65, 0x6e, 0x74, 0x69, 0x61, 0x6c, 0x2f, 0x63,
  0x6f, 0x6e, 0x76, 0x32, 0x64, 0x5f, 0x31, 0x2f, 0x43, 0x6f, 0x6e, 0x76,
  0x32, 0x44, 0x00, 0x00, 0x9c, 0xdd, 0xff, 0xff, 0xa6, 0xde, 0xff, 0xff,
  0x04, 0x00, 0x00, 0x00, 0x80, 0x01, 0x00, 0x00, 0x3c, 0xa5, 0x7e, 0xbe,
  0x26, 0x64, 0x20, 0xbd, 0x4c, 0xcc, 0x79, 0xbe, 0x30, 0xc3, 0xf1, 0xbd,
  0x3c, 0xea, 0xc2, 0xbd, 0x4d, 0xe3, 0xfc, 0xbd, 0xf5, 0x12, 0x41, 0xbe,
  0xa2, 0x61, 0x1d, 0xbe, 0x16, 0xc4, 0x06, 0xbe, 0xae, 0xb9, 0xe1, 0xbc,
  0xbc, 0xf2, 0x11, 0xbd, 0xc2, 0xc7, 0x64, 0x3d, 0x28, 0x9b, 0x8b, 0x3e,
  0xb8, 0xc4, 0xd1, 0xbc, 0xa7, 0xe6, 0xd5, 0x3d, 0x29, 0xbe, 0x5d, 0x3e,
  0x9d, 0xd3, 0x27, 0x3e, 0x44, 0x7e, 0xad, 0xbd, 0x12, 0xd0, 0x5c, 0xbe,
  0x2d, 0x8f, 0x81, 0x3e, 0x23, 0x92, 0xc9, 0x3d, 0xc1, 0xb3, 0x9a, 0xba,
  0x87, 0x00, 0x30, 0x3d, 0x9d, 0x24, 0xa4, 0xbc, 0xde, 0x0d, 0x8a, 0xbe,
  0x15, 0x30, 0x20, 0xbe, 0x5e, 0xbd, 0x18, 0x3e, 0xc3, 0x20, 0xdf, 0x3d,
  0x57, 0x90, 0xb9, 0x3c, 0x0b, 0x1e, 0x2b, 0x3b, 0x5c, 0x6a, 0x99, 0x3d,
  0xeb, 0x0d, 0x42, 0x3e, 0x6d, 0x8b, 0x47, 0x3d, 0x62, 0x73, 0x8d, 0xbc,
  0x12, 0x28, 0xa2, 0x3d, 0xe6, 0x5f, 0x2d, 0xbe, 0xca, 0xe3, 0x42, 0xbd,
  0xa7, 0x1f, 0xfb, 0x3b, 0xad, 0x92, 0x70, 0xbe, 0x85, 0xc7, 0xb9, 0x3d,
  0x78, 0x42, 0xa5, 0xbd, 0x4b, 0x1a, 0x5c, 0xbe, 0x62, 0x3d, 0x85, 0xbd,
  0x63, 0x07, 0xef, 0xbd, 0xe9, 0xe8, 0xed, 0xbd, 0xb0, 0x44, 0xe6, 0x3c,
  0xf1, 0x6b, 0x35, 0x3e, 0x52, 0xc2, 0x2c, 0x3e, 0x9c, 0x0a, 0xe9, 0xbd,
  0x30, 0x07, 0x82, 0xbd, 0xf2, 0x44, 0x55, 0x3e, 0xd6, 0x6b, 0x40, 0xbd,
  0x6a, 0x78, 0xdd, 0xbd, 0xf6, 0xa9, 0xa1, 0x3d, 0x8a, 0xaf, 0x62, 0xbe,
  0xe3, 0x66, 0xc8, 0x3c, 0xc2, 0xc7, 0x38, 0xbe, 0x74, 0x17, 0xe6, 0x3d,
  0x69, 0x3e, 0x4b, 0x3d, 0x24, 0x5a, 0x90, 0x3e, 0xa4, 0x32, 0x46, 0xbd,
  0x49, 0x7e, 0xa2, 0x3d, 0x49, 0x4a, 0xce, 0x3c, 0x5f, 0x8d, 0x53, 0x3e,
  0xc3, 0x04, 0x6f, 0x3b, 0xdb, 0x2b, 0xda, 0xbd, 0x9b, 0x99, 0xb7, 0x3d,
  0x2d, 0xe0, 0x03, 0xbe, 0xb3, 0x99, 0xaa, 0xbc, 0x3e, 0x6a, 0x75, 0xbe,
  0xa1, 0xb9, 0x19, 0xbe, 0x78, 0x88, 0xcb, 0xbd, 0xd9, 0x04, 0x9e, 0x3c,
  0xcf, 0x76, 0x51, 0x3e, 0xcc, 0xcb, 0x86, 0x3e, 0xea, 0x4d, 0xda, 0xba,
  0x5b, 0x37, 0x6b, 0x3c, 0xec, 0xd8, 0xfe, 0xbd, 0x24, 0x1c, 0xcc, 0xbd,
  0xea, 0x1c, 0x58, 0xbd, 0xa7, 0x23, 0xec, 0xbd, 0x19, 0x1f, 0x28, 0xbe,
  0x92, 0x82, 0x85, 0x3d, 0xea, 0x58, 0x44, 0x3b, 0x7f, 0x46, 0x9c, 0x3e,
  0xa5, 0x45, 0x55, 0x3e, 0xf3, 0x25, 0x67, 0xbe, 0xfc, 0x93, 0x4b, 0xbe,
  0xb3, 0x86, 0xec, 0xbc, 0x1f, 0x02, 0x1c, 0x3c, 0xb2, 0x77, 0xa3, 0xbd,
  0x19, 0xcc, 0x34, 0xbd, 0xa3, 0x6b, 0xfd, 0x3d, 0xac, 0xed, 0x9b, 0xbd,
  0x72, 0xdc, 0x81, 0xbb, 0xa3, 0xfe, 0x5f, 0xbe, 0xfe, 0xdf, 0xff, 0xff,
  0x10, 0x00, 0x00, 0x00, 0x09, 0x00, 0x00, 0x00, 0x1c, 0x00, 0x00, 0x00,
  0x38, 0x00, 0x00, 0x00, 0x04, 0x00, 0x00, 0x00, 0x08, 0x00, 0x00, 0x00,
  0x04, 0x00, 0x00, 0x00, 0x03, 0x00, 0x00, 0x00, 0x01, 0x00, 0x00, 0x00,
  0x18, 0x00, 0x00, 0x00, 0x73, 0x65, 0x71, 0x75, 0x65, 0x6e, 0x74, 0x69,
  0x61, 0x6c, 0x2f, 0x63, 0x6f, 0x6e, 0x76, 0x32, 0x64, 0x2f, 0x43, 0x6f,
  0x6e, 0x76, 0x32, 0x44, 0x00, 0x00, 0x00, 0x00, 0x74, 0xdf, 0xff, 0xff,
  0x7e, 0xe0, 0xff, 0xff, 0x04, 0x00, 0x00, 0x00, 0xc0, 0x00, 0x00, 0x00,
  0x7a, 0xd0, 0x9d, 0xbe, 0x5c, 0x2f, 0xc4, 0xbe, 0x37, 0x6a, 0x03, 0xbf,
  0xac, 0x69, 0xfc, 0x3e, 0xaa, 0xe9, 0x31, 0x3e, 0x9f, 0xba, 0xc2, 0xbd,
  0x80, 0x9e, 0xa2, 0x3e, 0x3d, 0x9f, 0x3e, 0x3d, 0x84, 0x4f, 0x87, 0x3e,
  0xbd, 0x2a, 0xc3, 0xbd, 0x49, 0xea, 0x92, 0xbe, 0x86, 0x2f, 0xe3, 0xbd,
  0x63, 0x5c, 0xb1, 0x3e, 0x85, 0x49, 0xd1, 0xbe, 0x4d, 0xcb, 0xb3, 0x3e,
  0xc2, 0x87, 0x0e, 0xbf, 0x1f, 0xc5, 0x52, 0x3d, 0x41, 0x4f, 0x0e, 0x3e,
  0x04, 0xb6, 0x10, 0xbf, 0xd2, 0x23, 0x84, 0x3e, 0x04, 0xdd, 0x3b, 0x3e,
  0xf5, 0xe5, 0x01, 0xbf, 0x25, 0x29, 0x63, 0x3e, 0x8d, 0xce, 0x0d, 0x3e,
  0xbc, 0xc0, 0xd7, 0x3c, 0x75, 0xa4, 0x41, 0xbe, 0xee, 0x87, 0xd6, 0xbe,
  0x38, 0xd7, 0xd3, 0x3e, 0x5f, 0xfa, 0xac, 0x3e, 0xe0, 0xcc, 0xc8, 0x3b,
  0x03, 0x0a, 0xe5, 0x3e, 0x40, 0xc5, 0xf3, 0xbe, 0xb3, 0x16, 0xb4, 0x3e,
  0xe4, 0x7a, 0xcd, 0xbe, 0x1d, 0xbe, 0xa7, 0x3d, 0x50, 0x38, 0x60, 0xbd,
  0x23, 0x56, 0x32, 0xbe, 0x13, 0x9f, 0xff, 0xbe, 0xde, 0x94, 0xea, 0xbd,
  0x32, 0x61, 0x6f, 0xbe, 0x59, 0x91, 0x8c, 0xbd, 0xb9, 0x66, 0x9a, 0x3e,
  0x42, 0x5f, 0x3f, 0x3e, 0xea, 0x9a, 0x58, 0x3e, 0x15, 0xd0, 0xa6, 0xbe,
  0x3b, 0x46, 0x6a, 0x3e, 0xed, 0x80, 0xc1, 0x3e, 0x3a, 0x0a, 0x15, 0x3f,
  0x16, 0xe1, 0xff, 0xff, 0x10, 0x00, 0x00, 0x00, 0x08, 0x00, 0x00, 0x00,
  0x14, 0x00, 0x00, 0x00, 0x30, 0x00, 0x00, 0x00, 0x02, 0x00, 0x00, 0x00,
  0x03, 0x00, 0x00, 0x00, 0x10, 0x00, 0x00, 0x00, 0x19, 0x00, 0x00, 0x00,
  0x73, 0x65, 0x71, 0x75, 0x65, 0x6e, 0x74, 0x69, 0x61, 0x6c, 0x2f, 0x64,
  0x65, 0x6e, 0x73, 0x65, 0x5f, 0x31, 0x2f, 0x4d, 0x61, 0x74, 0x4d, 0x75,
  0x6c, 0x00, 0x00, 0x00, 0x84, 0xe0, 0xff, 0xff, 0x8e, 0xe1, 0xff, 0xff,
  0x04, 0x00, 0x00, 0x00, 0x00, 0x1c, 0x00, 0x00, 0x68, 0x3c, 0xee, 0xbb,
  0x9f, 0xdd, 0x8d, 0x3d, 0x93, 0x67, 0x07, 0xbe, 0xb1, 0x99, 0x66, 0x3e,
  0x1a, 0x28, 0xed, 0x3c, 0x0f, 0x5e, 0x3b, 0x3d, 0x2f, 0x63, 0xd4, 0xbd,
  0xe5, 0x86, 0x33, 0x3e, 0x1f, 0x2e, 0xc1, 0x3d, 0x54, 0xf5, 0x45, 0xbd,
  0xc8, 0x24, 0xd2, 0xbd, 0x94, 0x28, 0x11, 0x3e, 0x61, 0xea, 0x6b, 0xbd,
  0x3b, 0x50, 0x1c, 0x3e, 0x03, 0xe9, 0x1b, 0xbd, 0x88, 0x3c, 0xc6, 0xbc,
  0x13, 0xbd, 0x6c, 0xbd, 0x09, 0xd4, 0x55, 0x3e, 0x76, 0x59, 0x48, 0xbe,
  0xcd, 0x36, 0x39, 0xbe, 0x40, 0x6d, 0x80, 0x3d, 0x87, 0x17, 0x65, 0x3e,
  0x79, 0x82, 0x91, 0x3d, 0x68, 0x9f, 0xc7, 0x3d, 0xb4, 0x42, 0x55, 0x3c,
  0x06, 0xff, 0xc5, 0xbc, 0x9c, 0x2d, 0x87, 0x3d, 0x98, 0xc6, 0x49, 0x3e,
  0xbd, 0x7d, 0xe2, 0xbd, 0xd7, 0x5a, 0x29, 0xbe, 0xda, 0x98, 0x06, 0xbe,
  0xcc, 0xe8, 0x39, 0x3e, 0x5e, 0x30, 0xb2, 0xbd, 0x4c, 0x6e, 0x66, 0x3c,
  0x3b, 0x39, 0x01, 0x3e, 0xf2, 0x2e, 0xbe, 0xbd, 0xae, 0x76, 0x43, 0xbe,
  0x86, 0xe8, 0xaf, 0x3d, 0x99, 0x67, 0x11, 0xbe, 0x56, 0xf7, 0x17, 0x3e,
  0xdf, 0xf4, 0x23, 0x3d, 0xea, 0x67, 0x2a, 0xbe, 0x89, 0x8e, 0x0c, 0xbe,
  0xb9, 0x57, 0x21, 0xbd, 0x5a, 0x63, 0xc1, 0xbc, 0x14, 0xb9, 0xa7, 0xbd,
  0x0b, 0xa3, 0x09, 0xbd, 0x62, 0x45, 0x21, 0x3e, 0x9d, 0x50, 0x4e, 0x3e,
  0xbb, 0x00, 0x0c, 0xbe, 0x1f, 0x0f, 0x3c, 0x3e, 0xe6, 0x2f, 0x1a, 0xbd,
  0x92, 0x24, 0x32, 0x3e, 0x69, 0x27, 0xa8, 0xbc, 0x80, 0x83, 0xe8, 0xbd,
  0x67, 0x72, 0x27, 0xbe, 0x9a, 0xb9, 0x2d, 0x3e, 0x61, 0xa0, 0x47, 0x3e,
  0xcc, 0x54, 0xb8, 0x3d, 0xb7, 0x95, 0xa5, 0xbd, 0x40, 0x47, 0x92, 0x3a,
  0xc2, 0xba, 0xd8, 0x3d, 0x72, 0xc1, 0x5c, 0x3e, 0x90, 0x6f, 0xf1, 0x3d,
  0xf0, 0x75, 0x33, 0xbe, 0x04, 0x0f, 0x56, 0x3b, 0xe9, 0x8f, 0x3b, 0xbe,
  0xe8, 0x28, 0x8a, 0xbc, 0xcf, 0xdc, 0x49, 0x3d, 0xa4, 0xdb, 0x10, 0x3e,
  0x3b, 0xc8, 0x11, 0x3e, 0xdb, 0x1c, 0xe1, 0x3d, 0x5c, 0x37, 0x94, 0xbd,
  0x6d, 0x2b, 0x0e, 0xbe, 0x67, 0x23, 0x3a, 0xbe, 0xb4, 0xf0, 0xbb, 0xbc,
  0x54, 0x52, 0x33, 0xbe, 0x9b, 0x44, 0x2d, 0x3e, 0xf5, 0x81, 0x44, 0x3e,
  0xc7, 0x6b, 0xda, 0x3d, 0x92, 0xb1, 0x44, 0x3e, 0x7d, 0x6f, 0x4a, 0x3d,
  0x75, 0x69, 0x1c, 0x3e, 0xe2, 0xe8, 0xcd, 0xbd, 0x9c, 0x85, 0xe3, 0x3d,
  0x77, 0x25, 0x36, 0xbd, 0xec, 0x9c, 0x1d, 0x3d, 0xed, 0x3d, 0x11, 0xbe,
  0xf6, 0x7d, 0x46, 0x3e, 0x76, 0xaa, 0x7a, 0xbd, 0x71, 0xbd, 0x19, 0xbe,
  0x3a, 0x3f, 0xf3, 0xbb, 0xdd, 0x72, 0x40, 0xbc, 0x38, 0xc9, 0x17, 0xbe,
  0x42, 0xf0, 0x64, 0x3e, 0x14, 0xf0, 0x2a, 0x3e, 0xb9, 0xa9, 0xf2, 0xbd,
  0xcb, 0xa6, 0xc9, 0xbd, 0x3e, 0x72, 0xea, 0x3d, 0x6e, 0x9c, 0x25, 0xbc,
  0x29, 0x14, 0x4d, 0x3e, 0x9c, 0xac, 0x9e, 0xbd, 0x58, 0x9f, 0x34, 0x3e,
  0x7d, 0xb5, 0xfc, 0x3d, 0xd2, 0x87, 0x54, 0xbd, 0xc9, 0x1a, 0x41, 0xbe,
  0xf2, 0x06, 0xa2, 0x3d, 0xf4, 0x41, 0x62, 0x3e, 0x23, 0xc7, 0x4a, 0xbe,
  0x3c, 0x41, 0xe0, 0x3d, 0x08, 0x62, 0x08, 0xbe, 0x53, 0x8e, 0x91, 0x3d,
  0xde, 0x36, 0x6b, 0xbd, 0x22, 0xbc, 0x18, 0xbe, 0x78, 0xbb, 0xda, 0xbd,
  0x30, 0x43, 0x5d, 0xbe, 0xea, 0x5b, 0x0c, 0x3e, 0x1d, 0x8e, 0x0f, 0x3d,
  0x40, 0xd9, 0xab, 0xbd, 0xdb, 0xb7, 0xb0, 0xbd, 0xf7, 0x2b, 0x40, 0x3a,
  0x7f, 0xa9, 0xe1, 0x3c, 0xc0, 0x8f, 0x0a, 0xbe, 0xf5, 0x3e, 0xa6, 0xbc,
  0x2a, 0x4e, 0x38, 0x3e, 0xc7, 0x7c, 0x05, 0x3e, 0xb7, 0x63, 0xa7, 0xbd,
  0xa7, 0x4c, 0x98, 0xbd, 0x23, 0xa3, 0x28, 0xbe, 0x09, 0xb7, 0x24, 0xbd,
  0xce, 0xb9, 0xf9, 0xbd, 0xff, 0xe2, 0xe4, 0xbd, 0x65, 0xb5, 0x05, 0x3e,
  0x9a, 0xe0, 0x4d, 0xbe, 0x84, 0xc3, 0xa5, 0xbd, 0x4b, 0x01, 0xa3, 0x3d,
  0x79, 0x31, 0x2e, 0xbe, 0x06, 0x30, 0xad, 0xbd, 0x58, 0x05, 0xda, 0x3d,
  0xac, 0xde, 0x00, 0xbd, 0x4f, 0x01, 0x25, 0xbe, 0xa5, 0x8d, 0x18, 0x3e,
  0x27, 0x3c, 0x88, 0x3d, 0xd0, 0xce, 0xdd, 0xbc, 0xae, 0x8b, 0xd3, 0xbd,
  0x4c, 0xf7, 0x13, 0xbe, 0xe6, 0xca, 0xd3, 0x3d, 0xe4, 0x76, 0x24, 0xbe,
  0x0e, 0x0c, 0xe7, 0x3d, 0xa8, 0x02, 0xb3, 0xbd, 0x15, 0xd6, 0x07, 0x3e,
  0xc4, 0xf5, 0x26, 0xbe, 0xed, 0xb1, 0x96, 0x3d, 0xd7, 0x92, 0x44, 0x3d,
  0x7e, 0x1c, 0x61, 0xbe, 0xad, 0xa1, 0x04, 0x3e, 0x00, 0xe9, 0x47, 0x3b,
  0xf6, 0x90, 0xaf, 0x3d, 0xf3, 0x9d, 0xc3, 0x3d, 0xd4, 0x6d, 0x03, 0xbe,
  0xa6, 0xb0, 0x21, 0x3e, 0x7c, 0x47, 0xf3, 0xbc, 0xd0, 0x5a, 0x04, 0xbe,
  0x72, 0x2f, 0x1b, 0xbe, 0x18, 0x9d, 0xa2, 0xbc, 0x84, 0xeb, 0x28, 0xbe,
  0xef, 0x6c, 0x58, 0xbe, 0x5c, 0x90, 0x5a, 0xbe, 0xca, 0x30, 0x96, 0xbd,
  0xce, 0x14, 0x1b, 0xbe, 0xd5, 0x0a, 0x4b, 0x3e, 0x21, 0x92, 0x2a, 0x3e,
  0x3b, 0xb1, 0x12, 0x3e, 0xd9, 0x3d, 0x4c, 0x3e, 0xa5, 0x8c, 0xa3, 0xbd,
  0xfe, 0x6e, 0x22, 0x3c, 0x8a, 0xed, 0x68, 0xbc, 0x62, 0x68, 0x0c, 0xbe,
  0x43, 0xf3, 0x07, 0x3e, 0x27, 0x04, 0x45, 0x3d, 0xda, 0x4b, 0x2d, 0x3e,
  0xc5, 0x2c, 0xd6, 0xbc, 0x1c, 0xa9, 0x2c, 0xbe, 0x1e, 0x5c, 0x0f, 0x3e,
  0xa4, 0x2d, 0x34, 0xbd, 0x1c, 0xf0, 0x95, 0xbd, 0x08, 0xc5, 0x17, 0xbd,
  0x53, 0x3e, 0x16, 0x3e, 0x7e, 0xea, 0x1e, 0xbe, 0xa2, 0x52, 0x92, 0x3d,
  0xe5, 0xf6, 0x68, 0x3d, 0xa7, 0xba, 0x4c, 0xbe, 0x09, 0x32, 0x96, 0xbd,
  0x8f, 0x79, 0xfa, 0x3d, 0xff, 0xcc, 0x12, 0x3e, 0x5b, 0xb6, 0x2b, 0x3e,
  0xd6, 0x87, 0x0f, 0xbe, 0x51, 0xdd, 0x40, 0x3e, 0x84, 0x93, 0x57, 0xbd,
  0xd6, 0xd3, 0xca, 0x3d, 0x3c, 0xf4, 0x46, 0xbd, 0x34, 0xc0, 0x88, 0xbd,
  0x57, 0x08, 0x31, 0xbe, 0xfa, 0x8a, 0xe5, 0x3d, 0x2d, 0xd7, 0x25, 0x3e,
  0xc7, 0xd3, 0x2a, 0x3e, 0x50, 0x48, 0x6d, 0x3c, 0x09, 0x67, 0xd9, 0xbd,
  0x18, 0x73, 0x47, 0xbe, 0x75, 0x23, 0xfd, 0xbd, 0x9d, 0x0a, 0xba, 0x3c,
  0x72, 0xae, 0x8f, 0x3d, 0x44, 0xe5, 0x1e, 0xbe, 0x46, 0x45, 0xbb, 0x3d,
  0x20, 0x30, 0x41, 0x3c, 0x28, 0x19, 0x32, 0xbe, 0xc0, 0xfe, 0x4a, 0x3d,
  0x32, 0x5e, 0x1f, 0xbe, 0xaf, 0x2e, 0x52, 0xbe, 0xeb, 0xd7, 0x4b, 0xbb,
  0x00, 0x92, 0x3c, 0x3b, 0xd9, 0x51, 0x12, 0x3e, 0x1d, 0x08, 0x2e, 0x3e,
  0x1d, 0xe4, 0xbc, 0x3c, 0x47, 0x08, 0x5c, 0x3e, 0xdb, 0x88, 0xc4, 0x3d,
  0xfc, 0x64, 0x07, 0x3e, 0xef, 0x6e, 0x11, 0x3e, 0x42, 0x60, 0x06, 0x3e,
  0xd9, 0xdd, 0x37, 0x3e, 0xd0, 0xb9, 0x1d, 0xbe, 0x92, 0xdb, 0xe6, 0x3c,
  0x82, 0x0b, 0x60, 0xbd, 0x85, 0x50, 0xf6, 0x3d, 0xad, 0x7c, 0x2f, 0xbd,
  0x9d, 0x67, 0x2a, 0xbe, 0x96, 0x81, 0xbc, 0x3d, 0x00, 0xc8, 0xc8, 0xb9,
  0x39, 0x35, 0x4c, 0xbe, 0x3c, 0x33, 0x9c, 0xbd, 0x6c, 0xc7, 0x35, 0xbe,
  0x2a, 0x1b, 0xc3, 0x3d, 0xdb, 0xf7, 0xda, 0x3d, 0xf1, 0x1e, 0x4d, 0xbd,
  0x4f, 0xca, 0xc1, 0x3d, 0xc4, 0x8e, 0x29, 0x3e, 0x58, 0x0a, 0x83, 0xb8,
  0x0d, 0xa7, 0x8c, 0xbd, 0xd5, 0x64, 0x1d, 0x3e, 0x26, 0xc4, 0x24, 0x3e,
  0x42, 0xb1, 0xdc, 0x3d, 0x2f, 0xe6, 0x68, 0x3e, 0x70, 0xf0, 0x63, 0x3e,
  0xd0, 0xee, 0x91, 0xbc, 0x13, 0x36, 0x0d, 0x3b, 0x6b, 0xb7, 0xdb, 0xbd,
  0x82, 0xdd, 0xb8, 0x3d, 0x48, 0x24, 0x81, 0xbd, 0x2d, 0x96, 0x00, 0xbd,
  0x6c, 0x3b, 0x29, 0x3c, 0xbf, 0x49, 0x22, 0x3d, 0x14, 0xbf, 0xc1, 0x3c,
  0x50, 0x80, 0x6e, 0x3c, 0x46, 0x1b, 0xae, 0xbd, 0x02, 0x28, 0x42, 0xbe,
  0x83, 0x13, 0x05, 0xbe, 0x78, 0x79, 0x27, 0x3e, 0xb4, 0x38, 0x15, 0x3e,
  0x3f, 0xc0, 0x44, 0xbe, 0x94, 0xf1, 0x39, 0x3d, 0x56, 0xe3, 0x5e, 0x3e,
  0x27, 0x3f, 0xce, 0x3c, 0x14, 0x94, 0xd6, 0x3c, 0xcc, 0xe6, 0x14, 0x3e,
  0xb2, 0xd0, 0x33, 0x3e, 0xeb, 0xa0, 0xb5, 0xbc, 0xe7, 0xc4, 0xba, 0xbd,
  0xff, 0xc0, 0x46, 0x3d, 0x9a, 0x5a, 0x94, 0x3d, 0xc7, 0x74, 0x4a, 0x3e,
  0xb3, 0xc0, 0x12, 0xbe, 0x9d, 0xc5, 0x34, 0xbe, 0x6b, 0xe1, 0x37, 0xbe,
  0xd5, 0xcf, 0xb5, 0x3d, 0xaa, 0x4a, 0xc1, 0x3c, 0x4e, 0xd4, 0x00, 0xbe,
  0x26, 0x8e, 0x08, 0x3e, 0xe9, 0xf8, 0x09, 0xbe, 0xe0, 0x41, 0xeb, 0xbd,
  0xde, 0xb2, 0x10, 0xbe, 0x8a, 0xed, 0xde, 0xbd, 0x28, 0xd0, 0x10, 0xbe,
  0x71, 0x7a, 0x3a, 0x3e, 0xd4, 0x4e, 0x04, 0x3e, 0xd6, 0x64, 0x89, 0x3d,
  0x51, 0xa9, 0x3a, 0x3e, 0xcc, 0x58, 0x32, 0xbe, 0x3e, 0xb2, 0x43, 0x3e,
  0xcc, 0x8a, 0x13, 0xbe, 0xec, 0xbd, 0x2b, 0x3d, 0x3d, 0x39, 0x9b, 0xbc,
  0x18, 0x0b, 0xde, 0xbd, 0xe0, 0x25, 0xb9, 0xbd, 0xdb, 0x94, 0xdb, 0x3d,
  0xce, 0xde, 0x24, 0x3e, 0xfa, 0xef, 0x30, 0xbe, 0x52, 0x46, 0x25, 0xbe,
  0xe0, 0xc6, 0xf1, 0xbd, 0x2a, 0xfd, 0x3e, 0xbe, 0x2c, 0x2d, 0x64, 0x3e,
  0x6a, 0x2a, 0xc3, 0x3d, 0x0b, 0x89, 0x24, 0xbe, 0xe5, 0xf1, 0xb6, 0xbd,
  0xdc, 0x69, 0x98, 0xbb, 0xed, 0x21, 0x02, 0xbd, 0x3d, 0x3f, 0x0f, 0x3e,
  0xd1, 0x1c, 0xd4, 0x3d, 0xf4, 0xd2, 0x51, 0xbe, 0x23, 0x6f, 0x51, 0xbd,
  0x87, 0xcd, 0xf8, 0x3d, 0xf3, 0x78, 0x3d, 0x3e, 0xa1, 0x07, 0x3d, 0x3e,
  0x11, 0xaa, 0x7b, 0xbd, 0xc7, 0x91, 0x21, 0x3c, 0xde, 0xb8, 0xc6, 0x3d,
  0x23, 0xd3, 0x1d, 0x3e, 0x05, 0x9c, 0x3b, 0x3e, 0x35, 0x78, 0x85, 0xbc,
  0x9f, 0xdc, 0x43, 0xbd, 0x41, 0x7b, 0x17, 0x3e, 0x6f, 0xc2, 0x19, 0x3e,
  0x56, 0x0b, 0xfa, 0xbb, 0x7e, 0xee, 0x07, 0x3e, 0x81, 0x91, 0x10, 0x3e,
  0x0f, 0x75, 0x2c, 0xbe, 0x35, 0x7b, 0xa7, 0xbd, 0xa3, 0xa1, 0x41, 0xbe,
  0x4d, 0xff, 0x23, 0x3e, 0xe4, 0x1a, 0x78, 0xbd, 0xf8, 0x13, 0xd9, 0xbc,
  0x7c, 0x39, 0x12, 0x3e, 0xee, 0x27, 0x45, 0xbe, 0xe0, 0x5e, 0xd1, 0xbd,
  0xb6, 0x82, 0x73, 0xbe, 0xfc, 0x60, 0xbe, 0xbd, 0x2b, 0x7e, 0xbc, 0xbd,
  0xae, 0x00, 0x93, 0xbd, 0x7a, 0xe3, 0x56, 0xbe, 0x22, 0xa4, 0x4a, 0xbe,
  0xa1, 0x64, 0x3c, 0x3e, 0xcf, 0x2b, 0xa3, 0xbd, 0x6e, 0x12, 0xf0, 0x3c,
  0xec, 0xf8, 0xbf, 0x3d, 0xef, 0x58, 0x32, 0xbe, 0x1e, 0xaa, 0xbb, 0x3c,
  0x8a, 0xcc, 0xbb, 0x3c, 0x38, 0x6c, 0x6b, 0xbd, 0x13, 0x57, 0x67, 0xbe,
  0x6a, 0x5d, 0x55, 0xbe, 0x72, 0x77, 0xd3, 0xbc, 0x68, 0x45, 0xb4, 0xbd,
  0xad, 0x76, 0xc6, 0xbd, 0xac, 0xf1, 0xff, 0x3c, 0x92, 0xa3, 0xe4, 0x3d,
  0xec, 0x63, 0xce, 0xbd, 0x20, 0x23, 0x0a, 0xbd, 0xa5, 0x17, 0x81, 0xbc,
  0x27, 0xe5, 0x2b, 0xbe, 0xe9, 0xed, 0x81, 0x3b, 0x9c, 0xd9, 0x53, 0x3e,
  0xbc, 0xbb, 0x22, 0x3e, 0x8d, 0xc3, 0x0e, 0xbe, 0x91, 0x92, 0x0e, 0xbe,
  0x08, 0x7c, 0x11, 0x3e, 0x3a, 0xa1, 0xcf, 0x3d, 0x04, 0x9f, 0x10, 0xbe,
  0x8f, 0xa7, 0x49, 0xbe, 0xb4, 0x2a, 0x04, 0xbe, 0x55, 0x81, 0xd0, 0x3d,
  0xb8, 0x5e, 0x20, 0xbe, 0x10, 0x84, 0x7c, 0x3d, 0xe0, 0xd7, 0x4b, 0x3c,
  0x09, 0x67, 0x8f, 0x3c, 0xda, 0xfa, 0xd3, 0x3d, 0xc6, 0xc9, 0x5e, 0xbd,
  0xe9, 0x40, 0x8d, 0xbd, 0xae, 0x87, 0x5c, 0xbe, 0x0f, 0x9e, 0xfd, 0x3d,
  0x96, 0x8b, 0xe1, 0x3c, 0x9e, 0x67, 0x91, 0x3c, 0xae, 0xc7, 0xcd, 0x3d,
  0x65, 0xcc, 0x32, 0xbc, 0x81, 0x45, 0x19, 0x3c, 0xe1, 0x27, 0x69, 0xbe,
  0xd0, 0x8a, 0xe1, 0xbd, 0x34, 0x48, 0x87, 0x3d, 0x34, 0xb8, 0x83, 0x3d,
  0x0b, 0x16, 0x19, 0xbe, 0xdd, 0xb7, 0x06, 0xbe, 0x27, 0xfc, 0x79, 0xbd,
  0xb4, 0x8d, 0x70, 0xbe, 0x6a, 0x94, 0x2c, 0x3e, 0xf9, 0x0d, 0x34, 0x3e,
  0xd4, 0x5c, 0x2f, 0x3e, 0x3c, 0xf3, 0x9e, 0xbd, 0xe7, 0x77, 0x7d, 0x3d,
  0x98, 0x29, 0xa9, 0xbc, 0x53, 0xd3, 0x72, 0xbe, 0xca, 0xf7, 0x1b, 0x3e,
  0xf0, 0x68, 0x25, 0x3e, 0x36, 0xb7, 0x70, 0x3d, 0x1c, 0xe6, 0xbb, 0x3c,
  0x87, 0x52, 0x5c, 0x3d, 0x40, 0xff, 0x9a, 0xbd, 0xd4, 0x35, 0x03, 0xbe,
  0x78, 0x79, 0x09, 0xbe, 0x52, 0x12, 0x0a, 0x3d, 0xb6, 0xfd, 0x85, 0x3d,
  0xa9, 0xf3, 0x04, 0x3e, 0x96, 0xa0, 0x02, 0x3d, 0xcd, 0xc4, 0x38, 0x3d,
  0xc3, 0x80, 0x28, 0xbe, 0x43, 0xb8, 0x4d, 0x3e, 0x17, 0x83, 0xcc, 0xbd,
  0x1e, 0xec, 0x98, 0x3d, 0xa8, 0x14, 0x44, 0xbd, 0x32, 0xed, 0x32, 0x3e,
  0x2f, 0x71, 0x40, 0xbe, 0x02, 0x91, 0x1f, 0x3c, 0x04, 0xdd, 0x25, 0x3d,
  0xd3, 0x78, 0xff, 0xbd, 0x3c, 0x2f, 0xfc, 0xbd, 0x53, 0x9b, 0x4a, 0xbe,
  0x8a, 0xa3, 0x1d, 0xbe, 0x9e, 0xab, 0x6c, 0xbe, 0x34, 0x56, 0xd8, 0x3d,
  0xdb, 0x42, 0xa2, 0xbc, 0xb3, 0xe1, 0x20, 0xba, 0x30, 0xef, 0xbb, 0xbc,
  0x4d, 0xc9, 0x66, 0xba, 0xae, 0xec, 0xb8, 0x3d, 0xac, 0x6f, 0x2a, 0xbe,
  0x50, 0x99, 0x42, 0xba, 0xc5, 0x7c, 0x8f, 0xbd, 0x8b, 0x87, 0x12, 0x3e,
  0x8c, 0x95, 0x39, 0x3d, 0x04, 0x39, 0x84, 0xbd, 0x89, 0xed, 0xcc, 0xbd,
  0x89, 0x05, 0x18, 0x3d, 0xec, 0x2c, 0x8a, 0x3c, 0xf9, 0x3c, 0x76, 0x3c,
  0x92, 0x5a, 0x4d, 0xbe, 0xa8, 0x76, 0x6a, 0xbe, 0x65, 0x35, 0x0a, 0xbe,
  0x2b, 0x83, 0x27, 0xbe, 0xbf, 0xed, 0x7e, 0x3d, 0x1f, 0xc3, 0x39, 0x3e,
  0xae, 0x6d, 0xed, 0x3d, 0x06, 0x92, 0x5c, 0x3d, 0x8a, 0x16, 0x80, 0x3d,
  0xed, 0xa9, 0x2c, 0x3e, 0xd6, 0xe1, 0x1a, 0xbe, 0xa1, 0x82, 0x81, 0xbd,
  0x08, 0xad, 0x07, 0xbe, 0xed, 0xec, 0xeb, 0xbc, 0x1e, 0x7e, 0x5d, 0xbd,
  0x25, 0xed, 0x81, 0xbd, 0x40, 0x56, 0x9f, 0xbd, 0x33, 0x89, 0xc8, 0x3d,
  0x74, 0x3f, 0x33, 0x3e, 0xdb, 0xf6, 0x42, 0x3e, 0xeb, 0xb2, 0x12, 0xbe,
  0xb1, 0x89, 0x2d, 0x3e, 0xcd, 0x7e, 0xb2, 0xbd, 0x38, 0x1f, 0x4b, 0xbe,
  0xb0, 0x7a, 0xb8, 0xbb, 0xfc, 0xfb, 0x0c, 0x3e, 0xa0, 0x83, 0x4b, 0x3c,
  0x06, 0x1a, 0x21, 0x3e, 0x71, 0x72, 0x8b, 0x3c, 0x42, 0x3c, 0xdb, 0x3d,
  0x40, 0x3f, 0x1c, 0xbd, 0x8a, 0x08, 0x8f, 0x3d, 0x10, 0xf4, 0xa0, 0xbd,
  0x72, 0x26, 0x69, 0x3d, 0x04, 0x64, 0xa3, 0x3c, 0xa1, 0x04, 0x1c, 0x3e,
  0xab, 0xd1, 0xc1, 0x3d, 0x93, 0xdb, 0x5b, 0xbe, 0x49, 0x1d, 0x9a, 0xbd,
  0x89, 0x43, 0xa8, 0x39, 0x88, 0x76, 0x7b, 0xbe, 0xbd, 0xb4, 0x80, 0xbd,
  0xe0, 0x7c, 0xf5, 0x3c, 0xe5, 0x11, 0x24, 0x3e, 0xda, 0x33, 0xfb, 0x3d,
  0x7c, 0x09, 0x33, 0xbc, 0x4c, 0x6f, 0x84, 0x3c, 0x45, 0x6f, 0x56, 0x3d,
  0x72, 0xd4, 0x39, 0xbe, 0xa2, 0x45, 0x1c, 0x3d, 0xed, 0x4b, 0x11, 0x3e,
  0x22, 0x39, 0xe0, 0x3d, 0xf5, 0xdc, 0x17, 0xbd, 0xe0, 0xa0, 0xce, 0xbc,
  0x5b, 0xb9, 0x1c, 0x3d, 0x43, 0x7a, 0xac, 0x3d, 0x7e, 0x2b, 0x2b, 0xbd,
  0xb2, 0xd5, 0x3c, 0xbd, 0x36, 0x38, 0x45, 0xbe, 0xb1, 0xff, 0x3b, 0xbd,
  0xa3, 0xae, 0xd7, 0x3d, 0xae, 0xde, 0x51, 0xbe, 0x32, 0xe5, 0x3c, 0xbd,
  0x68, 0xb4, 0xa8, 0xbd, 0x90, 0x09, 0xdb, 0xbd, 0x16, 0x1c, 0x3c, 0xbd,
  0x79, 0x04, 0x3e, 0xbd, 0x31, 0xa7, 0x22, 0x3e, 0x67, 0xef, 0x78, 0x3d,
  0x86, 0xe7, 0xff, 0xbc, 0x9c, 0xed, 0x9f, 0x3d, 0xe4, 0xea, 0x1f, 0x3e,
  0xcf, 0x83, 0x34, 0x3c, 0xee, 0x21, 0x1e, 0x3d, 0xc7, 0x11, 0x04, 0x3e,
  0xa9, 0x18, 0x4d, 0x3e, 0xe4, 0x35, 0xdc, 0xbd, 0xdb, 0xe6, 0x4d, 0xbd,
  0x26, 0x12, 0xb4, 0xbc, 0x4f, 0x8e, 0x78, 0xbe, 0x31, 0x40, 0x32, 0x3e,
  0x0c, 0x9a, 0xe5, 0xbd, 0xd3, 0xc6, 0x31, 0xbe, 0x6f, 0x49, 0x06, 0x3e,
  0xdc, 0x4b, 0x1e, 0xbe, 0x91, 0x41, 0x13, 0xbe, 0x84, 0x60, 0xb2, 0x3d,
  0x57, 0xa0, 0xd4, 0xbd, 0xa6, 0x43, 0xc9, 0xbd, 0x6c, 0xa7, 0xfe, 0x3c,
  0xb8, 0xbc, 0xc9, 0xbd, 0x23, 0x53, 0xe8, 0xbd, 0x67, 0x80, 0x2c, 0x3e,
  0xe1, 0x85, 0x96, 0x3d, 0x23, 0xed, 0x11, 0xbd, 0xc0, 0x97, 0x26, 0x3e,
  0x79, 0x64, 0x7d, 0x3c, 0xb0, 0x5d, 0x26, 0xbe, 0x7b, 0xa5, 0xf1, 0xbd,
  0xf9, 0xa5, 0xa7, 0x3d, 0x7d, 0x4d, 0xdf, 0xbd, 0xb9, 0xf5, 0xa6, 0x3d,
  0x9b, 0x83, 0x10, 0x3d, 0xdd, 0x5d, 0x3f, 0x3d, 0xc5, 0x39, 0x40, 0xbe,
  0x1c, 0xa6, 0x26, 0xbe, 0x62, 0x01, 0x49, 0x3e, 0x6c, 0x9f, 0x3a, 0xbe,
  0xd7, 0xc4, 0x61, 0xbe, 0x3c, 0x3f, 0x45, 0xbd, 0x55, 0x3b, 0x2b, 0x3d,
  0x4b, 0x05, 0x0f, 0x3d, 0xdd, 0x7b, 0x7b, 0xbe, 0xd3, 0x70, 0x85, 0xbc,
  0x69, 0x54, 0x1a, 0x3e, 0xc6, 0xcb, 0xbc, 0x3d, 0x31, 0xc0, 0xc8, 0xbd,
  0xe8, 0x1d, 0xe3, 0xbd, 0x0a, 0xc1, 0x44, 0xbe, 0xeb, 0xdb, 0x1f, 0x3e,
  0xc3, 0x3c, 0xb8, 0x3d, 0x28, 0x9f, 0xea, 0xbd, 0xe6, 0x9f, 0x2f, 0xbe,
  0x7b, 0xa9, 0x11, 0xbe, 0x86, 0x73, 0x33, 0xbe, 0xb5, 0x2d, 0x07, 0xbe,
  0xc7, 0xb4, 0x3e, 0xbc, 0x80, 0xc8, 0xd5, 0x3d, 0x16, 0x92, 0x5c, 0xbe,
  0x4b, 0xaf, 0xd1, 0xbd, 0xb1, 0x1d, 0xd5, 0xbd, 0x62, 0x11, 0x34, 0xbe,
  0x8e, 0xeb, 0x81, 0x3c, 0x28, 0x3f, 0xdd, 0x3d, 0x90, 0xa6, 0xe8, 0xbd,
  0x3c, 0x45, 0x04, 0x3e, 0xe5, 0x8f, 0xa7, 0xbc, 0xa6, 0xf4, 0xc4, 0x3d,
  0x60, 0x3e, 0x37, 0xbd, 0x24, 0x1f, 0x4e, 0xbd, 0x96, 0x00, 0x89, 0xbe,
  0xb4, 0x7a, 0x2b, 0xbd, 0xd0, 0x40, 0x93, 0xbd, 0xde, 0x99, 0xa0, 0xbc,
  0xb8, 0x7f, 0xad, 0xbc, 0xf8, 0x00, 0xe6, 0x3d, 0x2d, 0x70, 0xfd, 0xbd,
  0xc1, 0xd3, 0x2d, 0x3e, 0xd9, 0x66, 0x03, 0x3e, 0x2e, 0xde, 0xca, 0x3d,
  0x24, 0x14, 0xe2, 0x3d, 0xb7, 0x27, 0xfd, 0x3d, 0x78, 0x53, 0x45, 0xbe,
  0xf8, 0x40, 0x6f, 0xbc, 0xd5, 0xb7, 0x27, 0x3e, 0x67, 0x56, 0x10, 0xbd,
  0xa6, 0xc6, 0xe4, 0x3d, 0xd4, 0xe1, 0x25, 0xbe, 0xed, 0xf0, 0x1b, 0x3e,
  0x71, 0xdb, 0xb3, 0xbd, 0xad, 0x4c, 0x5d, 0xbe, 0xc7, 0x32, 0x81, 0xbe,
  0x73, 0x95, 0xfe, 0xbd, 0x3e, 0x21, 0x25, 0xbe, 0xc8, 0xfe, 0x53, 0x3c,
  0xbd, 0xbc, 0x9f, 0x3d, 0x79, 0x84, 0x8a, 0xbe, 0x31, 0x37, 0x88, 0xbe,
  0x3e, 0x79, 0xde, 0x3d, 0x2b, 0xe6, 0x2b, 0xbe, 0xb9, 0x37, 0x3b, 0x3e,
  0xed, 0x76, 0x1c, 0x3e, 0x32, 0x79, 0x5c, 0x3d, 0x94, 0xa8, 0x14, 0x3c,
  0xda, 0xce, 0x7e, 0x3c, 0x0e, 0x06, 0x2d, 0x3e, 0x47, 0x74, 0xe4, 0x3c,
  0x1d, 0x59, 0x47, 0xbe, 0xa9, 0xd3, 0xcb, 0xbd, 0x40, 0x2c, 0x0c, 0xbe,
  0xec, 0xcb, 0xe3, 0xbd, 0xdb, 0x30, 0x48, 0xbd, 0xbb, 0x1f, 0x0d, 0x3e,
  0xe6, 0x49, 0x54, 0xbe, 0xd4, 0xe9, 0xcf, 0x3d, 0xed, 0x24, 0xaa, 0xbb,
  0x9b, 0xde, 0x27, 0x3e, 0x9a, 0x04, 0x5a, 0xbe, 0xa9, 0x99, 0x06, 0xbd,
  0xad, 0x74, 0x26, 0x3c, 0x89, 0x12, 0xe6, 0x3c, 0x8e, 0x4e, 0x12, 0xbe,
  0xb9, 0xdc, 0x0d, 0x3e, 0x53, 0x93, 0x95, 0xbd, 0x3a, 0xef, 0x12, 0x3e,
  0xef, 0xae, 0x20, 0x3e, 0xbd, 0x1d, 0x1c, 0x3b, 0x96, 0xfb, 0xf2, 0xbd,
  0x5e, 0x06, 0xfc, 0xbd, 0x97, 0xc3, 0x0f, 0xbe, 0x0d, 0xdb, 0x15, 0xbe,
  0x53, 0xf5, 0x1c, 0x3e, 0xbd, 0x3c, 0x20, 0x3e, 0xb6, 0x0f, 0xe5, 0x3d,
  0x17, 0xfe, 0xeb, 0x3d, 0x49, 0x2f, 0xeb, 0x3d, 0x5b, 0x91, 0x3e, 0x3d,
  0xf0, 0xa8, 0xef, 0xbd, 0x35, 0x94, 0x3f, 0x3e, 0xe9, 0x9f, 0x2d, 0xbe,
  0x2f, 0xbb, 0x5b, 0xbe, 0x3c, 0x59, 0x37, 0x3d, 0xdb, 0x00, 0xb3, 0xbd,
  0xf6, 0x89, 0x59, 0xbe, 0xec, 0xb7, 0x55, 0x3b, 0xc4, 0x44, 0x79, 0xbe,
  0xcc, 0x0f, 0x9f, 0x3d, 0x92, 0x56, 0xc0, 0xbd, 0x39, 0xac, 0x2a, 0x3e,
  0xf2, 0x6b, 0x24, 0xbe, 0xcc, 0x8f, 0x7f, 0xbd, 0x19, 0x9b, 0x64, 0xbd,
  0x05, 0xb4, 0xf8, 0xbd, 0x45, 0x5b, 0x28, 0x3e, 0x98, 0xf0, 0xa5, 0x3d,
  0xc9, 0xf3, 0xa5, 0x3d, 0x42, 0xfb, 0x25, 0xbe, 0xdd, 0x4d, 0x4d, 0xbe,
  0x0b, 0xf9, 0xa8, 0xbd, 0xd4, 0x68, 0x38, 0xba, 0x2d, 0xd7, 0xcb, 0x3d,
  0x34, 0x6e, 0xdd, 0x3d, 0xa3, 0xbb, 0x68, 0xbe, 0xfc, 0x55, 0x1f, 0xbe,
  0xed, 0x86, 0x14, 0xbe, 0x88, 0x6e, 0x0d, 0x3e, 0x85, 0xc5, 0x02, 0xbe,
  0x63, 0xc0, 0x19, 0x3e, 0x6e, 0x04, 0x00, 0xbe, 0x82, 0x49, 0x42, 0x3d,
  0xd6, 0xfd, 0x4c, 0x3e, 0xc7, 0x76, 0x84, 0xbe, 0xa5, 0x49, 0x35, 0xbe,
  0xc8, 0x2d, 0xcf, 0x3d, 0x42, 0xde, 0x85, 0x3d, 0x11, 0x84, 0x2c, 0x3d,
  0xb2, 0xbf, 0x29, 0x3e, 0x1a, 0x29, 0x55, 0x3d, 0x6a, 0xf9, 0x7e, 0xbe,
  0xaf, 0x4f, 0xba, 0x3d, 0xdc, 0xef, 0xa0, 0xbd, 0x75, 0xf7, 0x96, 0x3d,
  0xcc, 0x08, 0x86, 0x3d, 0x74, 0x7d, 0xc3, 0x3d, 0x36, 0x90, 0x31, 0xbe,
  0x50, 0x25, 0x18, 0x3e, 0xc5, 0x74, 0x17, 0xbe, 0x78, 0xe2, 0x0f, 0x3e,
  0x66, 0x56, 0x42, 0xbe, 0x1f, 0xb9, 0x25, 0xbe, 0x02, 0xfe, 0xe3, 0xbd,
  0x71, 0xdc, 0x16, 0x3b, 0xed, 0xb2, 0x87, 0x3d, 0x41, 0x40, 0x35, 0xbe,
  0xe4, 0x5b, 0xe4, 0x3d, 0x9c, 0xe7, 0x11, 0x3e, 0x72, 0xd9, 0xf2, 0xbd,
  0x53, 0xed, 0x24, 0x3e, 0xa3, 0xc1, 0x59, 0xbe, 0x85, 0x58, 0xb1, 0x3d,
  0xb2, 0xda, 0x48, 0x3d, 0xb3, 0xd4, 0x50, 0x3d, 0xd1, 0x58, 0x00, 0x3e,
  0x18, 0x3b, 0x0d, 0x3e, 0x38, 0x17, 0x0f, 0x3d, 0xab, 0x41, 0x5c, 0xbd,
  0x35, 0x4b, 0x91, 0xbd, 0xaa, 0xe4, 0xbd, 0xbd, 0x4a, 0x4f, 0x72, 0xbe,
  0x97, 0xf1, 0x23, 0xbe, 0xd5, 0x6b, 0x22, 0xbd, 0x9d, 0xc1, 0x46, 0x3d,
  0xd2, 0x58, 0xca, 0xbd, 0xf7, 0x40, 0x31, 0xbe, 0xa6, 0x99, 0x27, 0x3c,
  0x3e, 0xd9, 0x8d, 0xbd, 0xcb, 0x86, 0x1b, 0xbe, 0xf4, 0x86, 0x93, 0x3d,
  0x81, 0x5a, 0x85, 0x3d, 0xfe, 0xf1, 0x21, 0x3e, 0x08, 0x5f, 0x62, 0xbe,
  0x84, 0x63, 0x29, 0xbd, 0x5e, 0x90, 0x79, 0xbe, 0x7f, 0x62, 0x0d, 0xbe,
  0x1f, 0xef, 0xe1, 0xbd, 0x20, 0x54, 0xfd, 0xbc, 0xd4, 0xc5, 0x20, 0xbe,
  0x4c, 0xd7, 0xec, 0xbd, 0xf9, 0xbb, 0x55, 0x3e, 0x63, 0x8a, 0x2f, 0xbd,
  0x5e, 0x91, 0xaf, 0x3d, 0xd9, 0xb6, 0x45, 0xbe, 0x8c, 0x12, 0x01, 0xbe,
  0x8a, 0x41, 0x84, 0xbe, 0xf0, 0xc9, 0x0a, 0xbe, 0x5b, 0x90, 0x5c, 0xbe,
  0x9b, 0x0a, 0xc9, 0x3d, 0xca, 0x26, 0x91, 0x3d, 0xd7, 0x92, 0x10, 0xbe,
  0x18, 0xa4, 0x25, 0x3c, 0x1a, 0x77, 0x1d, 0x3e, 0x74, 0xc9, 0x63, 0xbe,
  0xda, 0xb5, 0x7e, 0xbd, 0xa7, 0x92, 0x67, 0xbe, 0xea, 0x04, 0x87, 0x3d,
  0xac, 0x32, 0x8f, 0x3d, 0x56, 0xe1, 0xe3, 0x3d, 0x20, 0x4c, 0xf0, 0x3d,
  0x8f, 0x38, 0x83, 0xbe, 0x04, 0xba, 0x03, 0x3d, 0xfc, 0x1d, 0x65, 0xbe,
  0x03, 0x91, 0xa6, 0xbb, 0x26, 0x6b, 0x12, 0xbe, 0xf8, 0x70, 0x3b, 0x3e,
  0xd8, 0x17, 0x00, 0x3e, 0x79, 0xcb, 0xc0, 0xbd, 0x82, 0x7a, 0x1d, 0xbd,
  0x09, 0x43, 0xe7, 0x3a, 0xad, 0xdf, 0x4c, 0x3c, 0x52, 0x56, 0x30, 0x3e,
  0xce, 0xf2, 0x79, 0xbc, 0x96, 0x21, 0x25, 0xbd, 0xa6, 0xe7, 0x04, 0x3e,
  0x4f, 0x8c, 0xfc, 0xbd, 0x51, 0x0c, 0xf8, 0x3d, 0xdb, 0xeb, 0x3f, 0xbe,
  0xe8, 0xf1, 0x83, 0xbd, 0x4c, 0x7c, 0x34, 0x3d, 0x65, 0x0a, 0x65, 0x3d,
  0x7c, 0x5d, 0x7e, 0x3d, 0x1a, 0x86, 0x48, 0xbe, 0xc5, 0xb4, 0xc2, 0xbd,
  0xdc, 0x4d, 0x88, 0xbd, 0x1a, 0x26, 0xfb, 0x3d, 0xe0, 0xbe, 0x81, 0x3d,
  0xa8, 0x8e, 0x5c, 0xbe, 0x66, 0x7b, 0x50, 0xbe, 0x98, 0x05, 0x87, 0x3b,
  0x46, 0x1f, 0x18, 0xbd, 0x9d, 0x6c, 0x35, 0xbd, 0x10, 0x19, 0x16, 0xbe,
  0x6e, 0x4b, 0x1d, 0xbe, 0xaa, 0xba, 0x2b, 0x3e, 0xcc, 0xe4, 0x54, 0xbd,
  0x6d, 0xbb, 0x87, 0xbd, 0x42, 0x44, 0xf1, 0xbc, 0x9a, 0xe1, 0x02, 0xbe,
  0x3c, 0xd4, 0x07, 0x3d, 0xd4, 0x02, 0x57, 0xbe, 0x0f, 0xd0, 0x97, 0x3d,
  0x9f, 0xbe, 0x85, 0xbe, 0xda, 0x91, 0x4f, 0xbd, 0x45, 0x0c, 0x30, 0x3e,
  0xe6, 0x03, 0x3e, 0xbd, 0x30, 0x7c, 0x69, 0xbe, 0xc0, 0x5a, 0xa1, 0xbd,
  0xb7, 0x80, 0xa1, 0xbd, 0x4a, 0x4d, 0xd5, 0xbd, 0x53, 0xa1, 0x14, 0xbe,
  0xbe, 0xf7, 0xc9, 0xbc, 0xbc, 0x51, 0x06, 0xbe, 0x72, 0xa9, 0xc3, 0x3d,
  0xae, 0x51, 0xbb, 0xbd, 0xd3, 0x23, 0xac, 0xbd, 0xf6, 0xda, 0xc5, 0xbd,
  0x0d, 0x40, 0xc6, 0xbd, 0x47, 0xe2, 0x27, 0x3e, 0x88, 0x3d, 0xdc, 0xbc,
  0x46, 0xaf, 0xe5, 0x3d, 0x7e, 0xec, 0x28, 0x3e, 0xba, 0x56, 0x55, 0xbd,
  0x83, 0x28, 0x89, 0x3d, 0xa9, 0x54, 0x1b, 0x3e, 0x4a, 0x25, 0x72, 0xbe,
  0xe3, 0x8c, 0xa4, 0xbd, 0x46, 0xe3, 0x82, 0xbd, 0x09, 0x6f, 0xb5, 0x3d,
  0x96, 0x75, 0x59, 0xbe, 0x4c, 0xb8, 0x9f, 0xbd, 0xc7, 0x7f, 0x61, 0xbd,
  0xe3, 0x5f, 0x02, 0xbe, 0x0e, 0xbe, 0xb2, 0xbd, 0x73, 0x2d, 0xf3, 0xbd,
  0x45, 0x19, 0x17, 0x3e, 0xb0, 0x27, 0xd4, 0xbc, 0xf3, 0xb7, 0xfc, 0x3d,
  0xcc, 0xc5, 0x33, 0x3d, 0x6f, 0x4e, 0x25, 0x3e, 0xde, 0xde, 0x19, 0xbe,
  0xab, 0x21, 0x65, 0xbe, 0x24, 0x20, 0xb6, 0x3c, 0x8f, 0x75, 0x3a, 0xbe,
  0xa5, 0xb6, 0xa5, 0x3d, 0x3c, 0xf9, 0x1e, 0x3d, 0x80, 0x85, 0x2b, 0xbe,
  0xe7, 0xfa, 0x25, 0x3e, 0x6b, 0x22, 0x29, 0xbe, 0x94, 0xf7, 0x42, 0x3e,
  0x23, 0x3a, 0xf0, 0xbd, 0xe4, 0x17, 0xc0, 0xbd, 0x50, 0xce, 0x34, 0xbe,
  0x66, 0x42, 0x2f, 0x3d, 0x66, 0xf1, 0x46, 0x3c, 0xc2, 0x33, 0x3f, 0xbe,
  0x79, 0x4e, 0xb8, 0xbd, 0x6c, 0x0b, 0x35, 0xbe, 0x53, 0xf2, 0xce, 0x3d,
  0xc4, 0x68, 0x7b, 0xbe, 0xdc, 0xd0, 0xad, 0x3b, 0x37, 0x41, 0x4b, 0x3e,
  0xe3, 0xc4, 0x1a, 0x3d, 0x24, 0xbe, 0xfb, 0x3d, 0x56, 0x72, 0x4c, 0xbe,
  0x52, 0x7d, 0xe8, 0x3d, 0x8d, 0xe9, 0x75, 0xbe, 0x1b, 0xbd, 0x9c, 0xbd,
  0x59, 0xdf, 0x56, 0x3e, 0x7c, 0xf1, 0x28, 0x3e, 0x70, 0x70, 0x67, 0xbd,
  0x94, 0xfd, 0x30, 0x3e, 0xec, 0x69, 0x54, 0x3d, 0xe0, 0x87, 0x1a, 0xbd,
  0x4b, 0x9d, 0x24, 0xbd, 0x6f, 0x2d, 0x1f, 0x3e, 0xf1, 0x67, 0xa5, 0xbd,
  0x10, 0xb9, 0x18, 0x3d, 0x1f, 0x4e, 0x1c, 0x3e, 0x47, 0x46, 0x58, 0xbe,
  0x44, 0xc8, 0x14, 0xbd, 0x00, 0x09, 0x32, 0xbe, 0x72, 0x4a, 0x52, 0xbe,
  0xa2, 0x75, 0x1c, 0x3e, 0x56, 0x62, 0xfd, 0x3d, 0xac, 0xa4, 0x02, 0x3e,
  0x39, 0xbe, 0xa4, 0x3d, 0x46, 0x7b, 0x3e, 0x3d, 0x20, 0x96, 0x78, 0xbe,
  0xf5, 0x8a, 0x19, 0xbe, 0x5c, 0x8d, 0x41, 0xbb, 0xff, 0x2a, 0x78, 0xbe,
  0x4e, 0xc7, 0xb0, 0xbd, 0xf5, 0x1a, 0xf4, 0xbd, 0x8e, 0x36, 0xda, 0xbd,
  0xa4, 0x50, 0x61, 0xbe, 0xe1, 0x7e, 0x1a, 0xbe, 0x6a, 0x83, 0x5f, 0xbe,
  0xe1, 0xec, 0x25, 0xbe, 0x94, 0xcc, 0x91, 0x39, 0x11, 0x8b, 0xec, 0xbd,
  0x47, 0x9f, 0xc1, 0x3c, 0x09, 0x2d, 0x78, 0xbe, 0x20, 0xf7, 0x83, 0xbe,
  0x38, 0xec, 0x53, 0xbd, 0x1c, 0x21, 0x02, 0x3e, 0xe2, 0xad, 0x8b, 0x3d,
  0x01, 0x3d, 0xb0, 0x3d, 0x30, 0x51, 0xbf, 0xbd, 0x0c, 0xfa, 0x10, 0x3d,
  0xb3, 0xf3, 0x12, 0x3d, 0xe0, 0x7b, 0x2f, 0xbd, 0x29, 0x08, 0x0b, 0xbe,
  0x1a, 0xea, 0x24, 0xbe, 0xe2, 0x00, 0xc9, 0x3b, 0x28, 0x5f, 0xf1, 0x3d,
  0xf3, 0x2f, 0x2c, 0x3e, 0xea, 0x6e, 0x20, 0x3e, 0xbb, 0x04, 0x02, 0x3e,
  0xe4, 0x9b, 0xe5, 0xbd, 0x69, 0x03, 0xb0, 0x3d, 0x16, 0x15, 0x2a, 0x3e,
  0x1c, 0xf2, 0x39, 0x3e, 0x75, 0x5a, 0xfd, 0x3c, 0x45, 0xc5, 0xe1, 0x3d,
  0x7d, 0x13, 0xe7, 0xbd, 0xe5, 0xfc, 0xff, 0x3d, 0x7d, 0xca, 0x72, 0x39,
  0xe8, 0x90, 0x4c, 0xbe, 0x8f, 0x95, 0xe4, 0xbd, 0xca, 0x39, 0x85, 0xbe,
  0x24, 0xa4, 0x3c, 0xbd, 0x4f, 0xeb, 0x41, 0x3e, 0xcb, 0x29, 0x26, 0xbe,
  0x24, 0x72, 0xfe, 0x3c, 0x2f, 0xa7, 0xbf, 0xbd, 0x54, 0xdc, 0xc2, 0xbd,
  0x3f, 0x46, 0xe1, 0x3d, 0x22, 0x7a, 0x33, 0x3e, 0xe9, 0x61, 0x86, 0xbd,
  0xd3, 0x22, 0xf0, 0x3b, 0x89, 0x75, 0x9a, 0xbd, 0xc8, 0xf8, 0x83, 0xbd,
  0xcf, 0xd1, 0x99, 0xbc, 0x05, 0x24, 0xc1, 0x3d, 0x8c, 0x6f, 0xf7, 0xbd,
  0x50, 0x99, 0x10, 0xbe, 0x1e, 0xe3, 0x27, 0x3b, 0x98, 0xc0, 0x0e, 0xbe,
  0x2f, 0x60, 0x10, 0x3d, 0xa8, 0xb8, 0xb7, 0xbd, 0x2e, 0x77, 0xce, 0x3d,
  0xbf, 0x95, 0x85, 0xbe, 0x3e, 0xfc, 0xa7, 0x3d, 0x73, 0x96, 0x66, 0xbd,
  0x00, 0x17, 0xfd, 0x3d, 0xa1, 0xba, 0xdb, 0xbd, 0x05, 0x22, 0x29, 0x3e,
  0x30, 0xfe, 0xd3, 0x3b, 0x08, 0x5d, 0x52, 0x3d, 0xd5, 0x28, 0x1f, 0xbe,
  0x49, 0xc3, 0x49, 0x3e, 0x4c, 0x1c, 0xfd, 0x3d, 0x90, 0x29, 0xed, 0xbd,
  0xd7, 0xd2, 0x48, 0xbe, 0xea, 0x01, 0x28, 0x3e, 0x23, 0xba, 0xc2, 0x38,
  0x5a, 0xff, 0x8a, 0x3c, 0x3c, 0x51, 0xef, 0x3d, 0xe9, 0x31, 0x86, 0xbe,
  0x4b, 0xad, 0x58, 0xbd, 0x2a, 0x49, 0x0c, 0x3d, 0x84, 0xb4, 0xf1, 0x3c,
  0xa2, 0xdb, 0x0c, 0xbe, 0xb4, 0x14, 0xc1, 0xbd, 0x9f, 0x55, 0xb7, 0x3c,
  0xdd, 0xf4, 0x55, 0x3c, 0x56, 0x82, 0x51, 0xbe, 0x53, 0x34, 0x36, 0x3d,
  0x35, 0xb1, 0x38, 0xbe, 0x00, 0xea, 0x53, 0xbd, 0x05, 0x4d, 0x8e, 0xbd,
  0xc1, 0x66, 0xe8, 0xbd, 0x5c, 0x7b, 0xc7, 0x3d, 0x61, 0x7e, 0x28, 0xbe,
  0x84, 0x41, 0x02, 0xbe, 0x22, 0x00, 0xa7, 0x3d, 0x2b, 0xde, 0x40, 0xbe,
  0xc0, 0xc6, 0x19, 0xbe, 0x54, 0xb3, 0xf1, 0xbd, 0x6a, 0x6f, 0x03, 0x3e,
  0x7d, 0x9c, 0xf4, 0x3d, 0xce, 0xc4, 0x2a, 0x3e, 0x37, 0xd3, 0xae, 0xbd,
  0x59, 0xc5, 0xf6, 0x3c, 0x1b, 0x7c, 0x71, 0xbd, 0x5a, 0x9a, 0xfa, 0x3d,
  0xbb, 0xdf, 0x6b, 0x3d, 0xcf, 0x46, 0x0a, 0xbe, 0xfe, 0x0e, 0x27, 0x3b,
  0x30, 0x94, 0x42, 0x3e, 0xda, 0xd2, 0xf6, 0x3d, 0x52, 0xac, 0x62, 0x3e,
  0x2e, 0x71, 0x18, 0xbd, 0x6e, 0x1c, 0x2f, 0xbe, 0xe7, 0x19, 0xea, 0xbd,
  0x42, 0x00, 0x10, 0x3d, 0xa1, 0x62, 0xa3, 0xbd, 0xe9, 0xd1, 0x3c, 0x3e,
  0xa5, 0x39, 0x9d, 0xbd, 0x88, 0xea, 0x7c, 0x3e, 0x0f, 0xb7, 0x29, 0xbe,
  0x84, 0x13, 0x5a, 0x3d, 0x0a, 0xa4, 0x80, 0xbd, 0xad, 0xce, 0xda, 0xbc,
  0xbc, 0x48, 0xe8, 0x3d, 0x35, 0x55, 0x3f, 0x3e, 0x48, 0x00, 0x43, 0xb9,
  0xd2, 0x15, 0x48, 0xbd, 0x62, 0xb9, 0x16, 0xbe, 0xc7, 0x9c, 0xdb, 0xbd,
  0xdf, 0xd6, 0x9d, 0x3d, 0x1d, 0x81, 0x25, 0xbc, 0xca, 0x33, 0x66, 0xbd,
  0xd9, 0x93, 0x0c, 0xbe, 0xb1, 0x34, 0xf7, 0xbd, 0xd0, 0xe2, 0x6a, 0xba,
  0xf3, 0xca, 0xc5, 0x3c, 0x40, 0x0e, 0x77, 0xbc, 0x60, 0x12, 0x29, 0x3e,
  0xa6, 0x33, 0x89, 0x3b, 0xae, 0x11, 0xae, 0x3d, 0x50, 0xdf, 0x0e, 0x3e,
  0x95, 0x4e, 0x1e, 0x3e, 0x70, 0x7d, 0xc2, 0xbd, 0x48, 0x26, 0xbb, 0x3c,
  0x83, 0x95, 0xd8, 0x3d, 0xcf, 0x69, 0x05, 0x3e, 0xfb, 0x60, 0x3b, 0xbd,
  0xb7, 0xfe, 0xd1, 0xbd, 0xea, 0x77, 0xe0, 0x3d, 0x92, 0x00, 0x30, 0x3c,
  0xc3, 0x08, 0x7b, 0x3d, 0xfb, 0xee, 0xf4, 0xbc, 0xc6, 0x10, 0xfb, 0x3d,
  0xea, 0x5c, 0xc0, 0xbd, 0xb9, 0xf7, 0xa9, 0x3d, 0x40, 0x50, 0x5f, 0x3e,
  0xf4, 0x8a, 0x23, 0xbe, 0xf4, 0x15, 0xfe, 0xbd, 0xc6, 0x43, 0xce, 0xbb,
  0x84, 0x25, 0x30, 0x3d, 0xe6, 0xe0, 0xd8, 0xbd, 0x52, 0x1f, 0x1e, 0xbe,
  0x32, 0xb9, 0x4d, 0x3d, 0x75, 0x0f, 0x4b, 0x3e, 0x24, 0x1f, 0x04, 0xbe,
  0x9a, 0xcb, 0x1f, 0x3d, 0x0e, 0xcd, 0xf8, 0x3d, 0xff, 0x99, 0xfb, 0xbd,
  0x2c, 0xf0, 0x70, 0xbd, 0xc4, 0x42, 0x2c, 0x3d, 0xff, 0xdc, 0x71, 0xbd,
  0xe1, 0x11, 0x0a, 0x3e, 0xda, 0x25, 0xaf, 0xbc, 0x8e, 0xdb, 0x6b, 0x3e,
  0x9f, 0xbb, 0x5a, 0xbd, 0x76, 0x35, 0x1d, 0x3e, 0x70, 0xe7, 0x40, 0x3e,
  0x52, 0xd5, 0x00, 0xbe, 0x0a, 0x23, 0x09, 0xbe, 0x4b, 0x7c, 0xb7, 0xbd,
  0x80, 0x31, 0x17, 0xbe, 0xa3, 0x20, 0xc9, 0xbd, 0x5a, 0xb4, 0x1f, 0xbe,
  0x19, 0xbd, 0x32, 0xbd, 0x9a, 0x54, 0x85, 0xbd, 0x90, 0x93, 0x5f, 0x3e,
  0xd3, 0xb9, 0x3f, 0xbc, 0x78, 0xd1, 0x0f, 0x3e, 0x4c, 0x44, 0xc9, 0x3b,
  0xb3, 0xe8, 0x05, 0xbe, 0xbd, 0x80, 0x1e, 0x3e, 0x30, 0xf5, 0xde, 0xbd,
  0xdd, 0x56, 0x1e, 0x3e, 0xb7, 0xd2, 0x4c, 0x3e, 0x50, 0x18, 0x54, 0x3e,
  0x09, 0xa0, 0xae, 0x3d, 0x3d, 0xcb, 0x46, 0x3e, 0xde, 0x5c, 0x02, 0x3e,
  0xbe, 0x7f, 0xe7, 0x3d, 0x74, 0xbe, 0x54, 0xbd, 0x23, 0x0d, 0x0e, 0xbe,
  0x9a, 0x41, 0x39, 0xbe, 0x44, 0xb6, 0x29, 0x3d, 0x45, 0xf6, 0x6e, 0x3d,
  0x5d, 0x1b, 0xde, 0xbd, 0x55, 0xa2, 0x1b, 0x3e, 0xe2, 0x12, 0x75, 0x3b,
  0x2f, 0xeb, 0x3f, 0x3e, 0xdf, 0x98, 0xe3, 0x3d, 0xf2, 0xd2, 0x96, 0xbd,
  0x1e, 0xda, 0xb0, 0xbd, 0xe1, 0x2f, 0x5b, 0xbb, 0x9b, 0xf8, 0x7e, 0x3e,
  0xbe, 0xea, 0x5a, 0x3e, 0xb0, 0x4f, 0x71, 0x3d, 0xe3, 0x12, 0x80, 0x3d,
  0x00, 0x83, 0xed, 0x3c, 0x4c, 0xde, 0x71, 0x3e, 0x7a, 0x54, 0xdb, 0xbd,
  0x04, 0x01, 0x0f, 0x3e, 0x19, 0xc7, 0x1d, 0xbe, 0x79, 0xfc, 0x61, 0xbc,
  0x76, 0x15, 0xe8, 0xbd, 0x76, 0x68, 0x86, 0xbc, 0x63, 0xff, 0xcc, 0x3c,
  0x32, 0x92, 0x07, 0xbe, 0xfe, 0x8f, 0xa9, 0x3c, 0x37, 0x1d, 0x09, 0xbe,
  0x6f, 0xa5, 0x74, 0x3d, 0xf3, 0x49, 0xcf, 0xbd, 0x29, 0xf5, 0x1f, 0xbe,
  0x45, 0x75, 0xa9, 0x3d, 0x20, 0x9c, 0xd4, 0xbd, 0xfd, 0xe5, 0x1d, 0xbe,
  0x7d, 0x80, 0x97, 0xbd, 0xdf, 0x2f, 0x5f, 0x3e, 0x3d, 0x4f, 0x15, 0x3e,
  0xf0, 0x28, 0xa9, 0xbc, 0x7c, 0x3f, 0xe5, 0xbc, 0xee, 0x2b, 0xff, 0xbd,
  0x4a, 0xc9, 0xa2, 0x3d, 0x6c, 0xc5, 0xa0, 0xbd, 0x96, 0x50, 0xc4, 0x3c,
  0x73, 0x45, 0xcc, 0x3d, 0x4d, 0xd5, 0x47, 0x3e, 0x8f, 0x97, 0x02, 0xbd,
  0x39, 0x8a, 0x1e, 0xbe, 0x98, 0xee, 0x4e, 0x3b, 0x06, 0xd3, 0x81, 0xbd,
  0x18, 0xdd, 0xa2, 0xbd, 0x16, 0x00, 0xe6, 0xbd, 0x36, 0x2e, 0x30, 0xbd,
  0x97, 0x05, 0x12, 0x3e, 0x07, 0xda, 0x92, 0xbd, 0x89, 0x11, 0xc5, 0x3c,
  0x40, 0xd7, 0x09, 0xbe, 0x84, 0xcb, 0xa7, 0xbd, 0x9a, 0xc3, 0xa8, 0x3d,
  0x0e, 0x7e, 0x57, 0xbe, 0xdc, 0x37, 0x4e, 0x3e, 0x21, 0x9a, 0x1d, 0xbe,
  0x9f, 0x59, 0x9b, 0xbd, 0xeb, 0x7c, 0x07, 0x3e, 0x41, 0x29, 0x24, 0xbe,
  0x8a, 0xe4, 0xc8, 0x3d, 0x04, 0x21, 0xe0, 0x3d, 0xb0, 0xda, 0x60, 0x3e,
  0x44, 0x81, 0x16, 0xbe, 0xa3, 0xa4, 0x74, 0x3e, 0x08, 0x7c, 0xd4, 0x3c,
  0xbe, 0x8c, 0x4c, 0x3e, 0xb3, 0xe4, 0x33, 0x3e, 0x64, 0xd7, 0xad, 0xbc,
  0x98, 0xe9, 0x9b, 0xbc, 0xdb, 0xf3, 0x51, 0xbd, 0xaa, 0xb3, 0xb3, 0xbb,
  0x5e, 0xa0, 0x8e, 0xbc, 0x41, 0x3d, 0x2e, 0xbe, 0x19, 0x31, 0x80, 0x3e,
  0xa7, 0x03, 0xb3, 0xbd, 0x04, 0x63, 0x7c, 0xbd, 0x02, 0x46, 0xe7, 0x3d,
  0x0a, 0xfa, 0xd5, 0xbc, 0x68, 0x3b, 0xb3, 0x3d, 0xb4, 0x0b, 0x11, 0xbd,
  0x61, 0x4f, 0x21, 0xbe, 0x81, 0xa9, 0x1e, 0x3e, 0x9b, 0x79, 0xec, 0xbd,
  0x48, 0x13, 0xe9, 0xbd, 0x99, 0xc8, 0x10, 0x3e, 0x56, 0x13, 0xb4, 0x3d,
  0xba, 0xe8, 0x8c, 0xbd, 0xf0, 0x81, 0x35, 0x3e, 0x78, 0x67, 0xc8, 0x3c,
  0xfb, 0x82, 0x6c, 0x3e, 0x1c, 0xe6, 0x24, 0x3d, 0x20, 0xee, 0xba, 0xbd,
  0x1c, 0xe3, 0x33, 0x3e, 0x21, 0xab, 0x64, 0xbc, 0x09, 0x4a, 0xd3, 0xbd,
  0xaf, 0x24, 0x6a, 0xbd, 0x4c, 0x65, 0xcc, 0xbd, 0xc8, 0x0d, 0xfe, 0x3d,
  0x14, 0xdb, 0xa2, 0x3d, 0xef, 0x93, 0x12, 0x3e, 0x48, 0x94, 0x51, 0xbd,
  0x96, 0x28, 0x96, 0x3d, 0x4e, 0x5b, 0xab, 0x3c, 0x74, 0x3c, 0xf8, 0x3d,
  0xd9, 0x15, 0x15, 0xbe, 0xd0, 0x7c, 0xe1, 0xbd, 0x19, 0x4f, 0x93, 0x3d,
  0x71, 0x4a, 0x2f, 0x3e, 0x5d, 0x9f, 0x9c, 0x3d, 0x9c, 0x72, 0x27, 0xbe,
  0x10, 0xa5, 0xac, 0x3d, 0x71, 0x4a, 0xa0, 0xbc, 0x71, 0x04, 0x3c, 0xbd,
  0x35, 0xca, 0x8f, 0x3d, 0xb8, 0x3b, 0x0c, 0x3e, 0x99, 0x24, 0x09, 0xbe,
  0x53, 0xc4, 0x39, 0xbe, 0xfa, 0x0e, 0x61, 0x3e, 0x5f, 0x96, 0x32, 0x3d,
  0xf8, 0x45, 0x59, 0x3c, 0x9e, 0x95, 0xfe, 0xbb, 0x7f, 0x7d, 0xc9, 0x3d,
  0x95, 0x15, 0x5e, 0xbd, 0x70, 0x5b, 0x65, 0xbd, 0x9f, 0x4b, 0x24, 0xbc,
  0x61, 0x75, 0x3c, 0x3e, 0x24, 0xa1, 0x05, 0xbd, 0x35, 0x94, 0xb1, 0xbd,
  0xfb, 0xe3, 0x31, 0x3e, 0x10, 0xf7, 0x3e, 0xbe, 0x6f, 0xab, 0x3a, 0x3e,
  0xa6, 0xda, 0xb6, 0xbc, 0x3f, 0x6a, 0x3f, 0x3e, 0xfa, 0x40, 0x3c, 0xbe,
  0x30, 0x47, 0xe3, 0xbd, 0x4f, 0x52, 0x0f, 0x3e, 0x93, 0x0a, 0x2a, 0xbe,
  0xab, 0x74, 0x9e, 0xbc, 0x9b, 0xfe, 0xf1, 0x3d, 0xdc, 0xa2, 0x4d, 0x3d,
  0x92, 0x56, 0xa1, 0xbd, 0x57, 0x59, 0xe4, 0xbd, 0xb1, 0x79, 0x2b, 0xbe,
  0x4b, 0x5d, 0x12, 0x3e, 0x5e, 0x70, 0x3b, 0xbd, 0xe9, 0x0e, 0x3a, 0x3e,
  0x69, 0x67, 0x45, 0x3c, 0xc6, 0xde, 0x9e, 0xbc, 0x52, 0x9a, 0x36, 0x3d,
  0xf9, 0x3a, 0x5a, 0xbe, 0x9d, 0x73, 0xb9, 0x3d, 0xfd, 0xf0, 0x62, 0xbe,
  0x02, 0x9f, 0x7b, 0xbd, 0xbf, 0xcf, 0x26, 0xbd, 0x78, 0x9f, 0x96, 0x3d,
  0xf3, 0xef, 0x3e, 0xbe, 0x3d, 0x6f, 0xbf, 0x3d, 0x7a, 0x85, 0xc7, 0x3d,
  0x28, 0x58, 0xd6, 0xbc, 0x71, 0xb5, 0x90, 0x3d, 0x85, 0xd4, 0xdf, 0x3d,
  0x5b, 0xcd, 0xa9, 0xbd, 0x9b, 0x5b, 0x2b, 0x3e, 0xaa, 0xce, 0x02, 0x3e,
  0xd3, 0x2e, 0x43, 0xbe, 0x54, 0xf9, 0x61, 0xbe, 0x3a, 0x03, 0xac, 0x3d,
  0x1d, 0xbf, 0x1e, 0x3e, 0x5b, 0x4c, 0xf0, 0xbd, 0xa4, 0xcc, 0xf4, 0xbd,
  0x33, 0x0a, 0x01, 0xbd, 0x27, 0x01, 0x4d, 0x3e, 0x2e, 0x53, 0x9d, 0xbd,
  0xa8, 0xb1, 0x66, 0xbe, 0x8c, 0x83, 0x14, 0x3e, 0xdd, 0x6a, 0xa3, 0xbd,
  0x5e, 0x4a, 0xa2, 0xbd, 0x5a, 0xed, 0xea, 0xbd, 0xc4, 0x81, 0xb1, 0xbd,
  0x2e, 0x33, 0xaa, 0x3d, 0xe2, 0x73, 0x90, 0x3d, 0x51, 0x71, 0xb4, 0xbd,
  0x12, 0x4c, 0x2d, 0x3e, 0x67, 0xcd, 0x15, 0x3b, 0x81, 0x0d, 0x04, 0x3e,
  0xa1, 0xf4, 0x33, 0x3e, 0x6a, 0x15, 0x84, 0xbd, 0x00, 0x5c, 0x13, 0xbb,
  0x6d, 0xed, 0x91, 0xbc, 0xd6, 0x66, 0xc5, 0xbd, 0x21, 0xf7, 0x38, 0xbd,
  0xbb, 0xf1, 0x3a, 0xbc, 0x38, 0x2e, 0x44, 0xbe, 0x82, 0x40, 0xdf, 0xbd,
  0x33, 0x8f, 0xa3, 0xbd, 0xca, 0x5b, 0x92, 0xbd, 0xf4, 0x8f, 0x02, 0xbe,
  0x45, 0x54, 0xfa, 0x3d, 0x44, 0xdd, 0x35, 0xbe, 0xa1, 0xc1, 0x7a, 0x3d,
  0x50, 0x0c, 0xfb, 0x3d, 0x01, 0xcc, 0x2c, 0x3e, 0x64, 0x14, 0x29, 0xbe,
  0xd2, 0x64, 0x1d, 0xbe, 0x5d, 0x31, 0xf6, 0x3c, 0x04, 0xe3, 0x21, 0x3d,
  0xeb, 0x52, 0x47, 0x3d, 0x0a, 0xed, 0x19, 0xbd, 0x17, 0x7f, 0x40, 0x3d,
  0x45, 0xb2, 0xa2, 0x3d, 0x31, 0x61, 0x08, 0xbe, 0xa4, 0xd7, 0xc3, 0x3d,
  0x9c, 0x78, 0x4b, 0xbd, 0x7c, 0xa0, 0xb9, 0x3d, 0x73, 0x93, 0xdd, 0xbb,
  0x93, 0xa7, 0x4b, 0x3c, 0x64, 0xfd, 0x46, 0xbe, 0x57, 0xa1, 0x69, 0xbe,
  0x32, 0x64, 0xf9, 0xbd, 0x57, 0x0d, 0x42, 0x3e, 0xbb, 0x2b, 0x5c, 0xbd,
  0x97, 0x61, 0xea, 0x3d, 0xa5, 0xfe, 0xb5, 0xbd, 0xdc, 0xcc, 0x19, 0x3d,
  0x52, 0x4c, 0x14, 0xbe, 0x79, 0x67, 0xdb, 0x3b, 0xa9, 0x25, 0x6b, 0xbe,
  0x5b, 0x00, 0xd7, 0x3d, 0x1b, 0xbf, 0x12, 0x3e, 0x3a, 0x38, 0xd2, 0x3d,
  0x69, 0x81, 0xa6, 0xbb, 0x10, 0xbd, 0x75, 0x3c, 0x46, 0x54, 0x82, 0x3d,
  0x0d, 0x0f, 0x25, 0x3d, 0xfc, 0x2c, 0xf5, 0x3d, 0x50, 0x7a, 0x62, 0xbd,
  0x7d, 0xb6, 0x4f, 0xbe, 0x9b, 0xd9, 0x34, 0xbe, 0x34, 0x25, 0x05, 0xbe,
  0xbd, 0x69, 0x51, 0xbd, 0xe0, 0x68, 0xe7, 0xbb, 0xeb, 0xf9, 0x48, 0xbe,
  0x0a, 0xa2, 0x6d, 0xba, 0xe6, 0x7e, 0xdf, 0x3d, 0xb1, 0x28, 0x14, 0x3e,
  0xd0, 0xc6, 0x2a, 0x3e, 0xc4, 0x0d, 0x0c, 0xbe, 0xf2, 0xcf, 0xbc, 0xbd,
  0x73, 0x78, 0xe2, 0x3c, 0x02, 0x96, 0x15, 0x3e, 0xa0, 0x33, 0xf2, 0x3d,
  0x80, 0xd3, 0x31, 0x3c, 0xed, 0x36, 0x8a, 0x3d, 0x58, 0x60, 0xca, 0xbd,
  0x93, 0x94, 0x46, 0x3d, 0xc9, 0x47, 0x63, 0x3d, 0x28, 0x1f, 0xed, 0xbd,
  0x73, 0x27, 0x22, 0x3e, 0x47, 0xa0, 0xb7, 0xbc, 0x1a, 0x8c, 0x21, 0x3e,
  0xb6, 0x2a, 0xac, 0x3d, 0xcd, 0x16, 0x5a, 0xbe, 0x61, 0x66, 0x18, 0xbd,
  0x04, 0x9f, 0x46, 0xbd, 0x78, 0xf5, 0x4b, 0x3e, 0xc0, 0x5d, 0x93, 0xbc,
  0x10, 0x27, 0xe0, 0xbc, 0x0c, 0xdb, 0xd4, 0xbd, 0x72, 0xa7, 0x31, 0xbe,
  0x22, 0x0e, 0x20, 0xbd, 0x90, 0x8e, 0x83, 0x3d, 0xd3, 0x80, 0x17, 0xbd,
  0xf1, 0xf4, 0xff, 0xbd, 0x0a, 0xbb, 0xe2, 0xbd, 0xc2, 0xeb, 0x13, 0x3e,
  0x82, 0x0d, 0xe8, 0x3d, 0xc6, 0xa7, 0xe6, 0x3d, 0x2b, 0xba, 0x52, 0xbe,
  0x1b, 0xac, 0x36, 0xbe, 0xad, 0x25, 0xe3, 0xbd, 0x08, 0x96, 0xdd, 0xbd,
  0xd5, 0x91, 0x0d, 0xbc, 0xb2, 0x71, 0x29, 0xbe, 0x54, 0x4d, 0x52, 0xbd,
  0x2d, 0xac, 0x05, 0x3e, 0x47, 0x78, 0x2b, 0xbe, 0x96, 0x1c, 0x2f, 0xbd,
  0x7a, 0x24, 0x33, 0x3c, 0xce, 0x1c, 0xb8, 0x3d, 0x32, 0x74, 0xc4, 0x3a,
  0xa7, 0x98, 0x62, 0x3c, 0x1d, 0x89, 0xa0, 0x3d, 0xfe, 0x0d, 0xc0, 0xbd,
  0x47, 0x43, 0x11, 0x3e, 0x8c, 0xac, 0x1e, 0xbe, 0x66, 0xff, 0xf6, 0xbd,
  0x62, 0x89, 0x06, 0xbe, 0xa2, 0x47, 0xd1, 0xbd, 0x3f, 0xd2, 0x5a, 0x3e,
  0x3e, 0x2b, 0xba, 0xbd, 0xd2, 0x23, 0x0d, 0xbe, 0x7b, 0x6e, 0x0c, 0xbe,
  0xda, 0x18, 0xc8, 0xbd, 0x2d, 0x09, 0xe8, 0x3d, 0x99, 0x42, 0x32, 0x3e,
  0x1b, 0x8e, 0xdd, 0x3d, 0x10, 0x08, 0x5d, 0xbe, 0x5d, 0xc1, 0xf5, 0xbd,
  0xe8, 0xcc, 0x8f, 0xbc, 0x40, 0x1f, 0x7b, 0xbc, 0x49, 0x3c, 0x20, 0xbd,
  0x50, 0x6b, 0x1f, 0xbe, 0xd0, 0x31, 0x49, 0x3d, 0x35, 0x11, 0x32, 0xbe,
  0x00, 0xb9, 0xc5, 0x3b, 0xfe, 0xcc, 0xdf, 0x3d, 0x72, 0x87, 0xb3, 0x3d,
  0xba, 0xd2, 0xb5, 0x3d, 0xd9, 0x94, 0xa4, 0xba, 0x72, 0x22, 0x16, 0xbd,
  0xc8, 0x67, 0x17, 0xbd, 0x7c, 0x36, 0x38, 0xbe, 0xbf, 0xda, 0xa0, 0x3d,
  0xd5, 0xac, 0x22, 0x3d, 0x34, 0xc0, 0x72, 0x3d, 0x30, 0x82, 0x15, 0xbe,
  0x4e, 0x3f, 0x62, 0xbe, 0xf7, 0x32, 0x8a, 0x3d, 0xfc, 0xfb, 0x85, 0x3b,
  0x83, 0xa2, 0xda, 0xbc, 0xea, 0xb9, 0x33, 0xbe, 0x43, 0x29, 0x5d, 0xbe,
  0xa2, 0xb6, 0xc4, 0x3c, 0x81, 0x72, 0xad, 0x3d, 0xc0, 0x6b, 0x38, 0xbe,
  0x18, 0x83, 0x5f, 0xbe, 0xbc, 0x1f, 0xdb, 0xbd, 0x32, 0xdf, 0xbe, 0x3c,
  0x90, 0xe7, 0x28, 0x3e, 0x2d, 0xc2, 0x1e, 0x3e, 0xce, 0xcc, 0x91, 0xbd,
  0xe3, 0xa0, 0x46, 0xbd, 0x62, 0x2b, 0x18, 0x3e, 0x89, 0x89, 0x13, 0xbe,
  0xe6, 0x2d, 0xf8, 0xbd, 0x59, 0x42, 0x08, 0x3e, 0xef, 0xf0, 0x01, 0xbe,
  0x4c, 0xd3, 0x71, 0x3d, 0xb3, 0xe1, 0x21, 0xbe, 0x5e, 0xb5, 0x4d, 0xbe,
  0x55, 0x38, 0x70, 0x3d, 0x47, 0xca, 0xeb, 0x3c, 0x2d, 0x2b, 0x5e, 0x3e,
  0x1e, 0xcf, 0xa0, 0x3d, 0xbc, 0xfc, 0x0c, 0xbd, 0xde, 0x46, 0x4a, 0xbd,
  0x28, 0xae, 0xb7, 0x3c, 0xdd, 0xf6, 0x9a, 0x3d, 0x68, 0xf5, 0xfd, 0xbd,
  0x68, 0xc8, 0xbf, 0xbd, 0x1d, 0x30, 0x62, 0x3e, 0x98, 0xa7, 0xb7, 0x3d,
  0x27, 0x01, 0xae, 0x3d, 0x40, 0xa6, 0xe9, 0x3b, 0x34, 0xaa, 0x3c, 0x3e,
  0x40, 0x89, 0xc5, 0x3c, 0x82, 0x13, 0x78, 0x3e, 0xcc, 0x74, 0xf8, 0xbd,
  0xe1, 0x16, 0x3a, 0x3e, 0xc5, 0xca, 0x33, 0xbe, 0xb7, 0x80, 0xcd, 0xbd,
  0x28, 0x81, 0x39, 0x3c, 0x36, 0x16, 0xea, 0xbd, 0x0a, 0xde, 0x50, 0x3e,
  0xe5, 0xa3, 0x55, 0x3d, 0x73, 0xb7, 0xbd, 0x3d, 0xee, 0x4e, 0xd5, 0xbd,
  0x2d, 0x51, 0xa0, 0xbd, 0xf1, 0xfb, 0xcf, 0x3d, 0xdc, 0xfe, 0x7a, 0x3d,
  0x58, 0x20, 0x5e, 0x3e, 0xb6, 0xc4, 0x4e, 0xbd, 0x6f, 0xbe, 0x74, 0x3d,
  0x35, 0xa8, 0xb6, 0x3d, 0xef, 0x55, 0x2f, 0x3c, 0xf8, 0x63, 0x5f, 0x3e,
  0xa7, 0x98, 0x10, 0x3e, 0x1d, 0x10, 0x09, 0xbe, 0x4c, 0x81, 0x52, 0xbe,
  0x31, 0xe2, 0xcf, 0xbc, 0x38, 0x5e, 0x36, 0xbe, 0xd1, 0x9c, 0xbd, 0xbd,
  0x9e, 0xd4, 0x8b, 0xbd, 0x2d, 0x87, 0xe2, 0xbd, 0xc4, 0xfc, 0x59, 0xbd,
  0x1c, 0xc7, 0x63, 0x3d, 0xc2, 0xce, 0x41, 0x3c, 0xc0, 0xcf, 0xf4, 0x3c,
  0x5d, 0x0a, 0xe2, 0xbc, 0xce, 0x5a, 0xe0, 0x3d, 0x99, 0x3e, 0x37, 0xbe,
  0xf7, 0x39, 0x1c, 0x3e, 0xff, 0xa0, 0x23, 0x3e, 0xde, 0xa6, 0x4e, 0x3e,
  0x31, 0xb2, 0x8c, 0xbd, 0x67, 0xa2, 0x41, 0xbc, 0xd0, 0x3d, 0x00, 0x3e,
  0x09, 0x4c, 0x74, 0x3d, 0x3a, 0xe7, 0x3b, 0x3e, 0x23, 0xab, 0x38, 0x3e,
  0x33, 0x7f, 0x49, 0x3e, 0xc0, 0x52, 0x69, 0xbd, 0xc4, 0xd5, 0x1c, 0x3e,
  0x8a, 0x05, 0xb8, 0x3d, 0x11, 0x10, 0xc0, 0xbd, 0xf5, 0x77, 0x9c, 0xbd,
  0x2f, 0x5a, 0x02, 0x3e, 0x39, 0x73, 0xdf, 0xbd, 0x14, 0xfe, 0xbf, 0xbd,
  0x34, 0xf7, 0x6e, 0x3e, 0x96, 0xf5, 0xa8, 0x3d, 0x57, 0xc9, 0x67, 0x3e,
  0xcc, 0x97, 0xc4, 0x3d, 0x8c, 0x4e, 0x65, 0xbd, 0x6c, 0x23, 0xcf, 0x3d,
  0x7d, 0x00, 0x2f, 0xbe, 0x9c, 0x64, 0x20, 0x3e, 0x4d, 0x0a, 0xef, 0xbd,
  0x00, 0x9a, 0x1d, 0x3b, 0x18, 0x34, 0xa3, 0xbd, 0xc8, 0x0e, 0xb1, 0x3d,
  0x9e, 0x16, 0xdd, 0x3d, 0x76, 0x14, 0x20, 0xbe, 0x61, 0x9c, 0x25, 0x3e,
  0xd5, 0xbd, 0x31, 0xbd, 0x8e, 0x4b, 0x63, 0x3e, 0x6a, 0x69, 0xac, 0xbd,
  0x3e, 0x3b, 0x05, 0xbe, 0xfb, 0xdb, 0x58, 0x3e, 0xc3, 0x1a, 0x1a, 0x3e,
  0xf4, 0x5f, 0x0f, 0xbe, 0x7d, 0x9c, 0x06, 0xbb, 0x90, 0x0e, 0xb7, 0xbd,
  0x16, 0xb8, 0x0c, 0xbe, 0x16, 0xbb, 0x9d, 0x3d, 0xc7, 0xe4, 0x71, 0x3e,
  0x1d, 0xa1, 0xdf, 0xbd, 0xe8, 0xdb, 0x0a, 0x3e, 0x9a, 0xe0, 0x6d, 0x3e,
  0x52, 0xbf, 0x0a, 0xbe, 0x40, 0xc2, 0x07, 0x3e, 0xc4, 0xa6, 0xc4, 0xbd,
  0x32, 0x7e, 0x9b, 0xbd, 0x28, 0xce, 0x1c, 0xbd, 0x0f, 0x52, 0x41, 0xbe,
  0x60, 0xf6, 0xab, 0xbd, 0xbf, 0x5a, 0x33, 0xbe, 0x15, 0x8e, 0x32, 0xbe,
  0x52, 0xb3, 0x9b, 0xbd, 0x3c, 0xfe, 0x16, 0x3d, 0x6d, 0xf3, 0x20, 0x3e,
  0x0a, 0x53, 0x4e, 0x3e, 0x15, 0x23, 0x1b, 0xbd, 0x83, 0x76, 0x50, 0xbe,
  0xc9, 0xea, 0x52, 0x3d, 0x03, 0x68, 0x66, 0x3d, 0x12, 0xea, 0x07, 0xbe,
  0x5d, 0x5b, 0x3c, 0xbd, 0x10, 0x73, 0xc3, 0x3c, 0x66, 0x41, 0x99, 0xbc,
  0xa5, 0x22, 0x5a, 0xbc, 0x9e, 0x3d, 0x4d, 0xbe, 0x87, 0x2c, 0x06, 0x3e,
  0x46, 0x75, 0xef, 0x3d, 0xe5, 0x13, 0xd6, 0xbd, 0x45, 0xca, 0x0e, 0x3e,
  0xf2, 0xc9, 0x5e, 0xbe, 0xb7, 0xab, 0xd8, 0x3d, 0x57, 0xbf, 0x12, 0xbd,
  0x04, 0xab, 0x84, 0x3c, 0xe5, 0xe3, 0x84, 0xbc, 0x09, 0xaa, 0xfd, 0xbb,
  0x9e, 0x14, 0x17, 0x3e, 0x3e, 0x46, 0x0b, 0x3e, 0xa8, 0xa0, 0xfa, 0xbd,
  0x0b, 0xe2, 0x05, 0xbd, 0x2d, 0x5d, 0x49, 0x3e, 0xdd, 0x1c, 0x90, 0x3d,
  0x63, 0x04, 0xc2, 0xbd, 0xc4, 0xbb, 0x83, 0xbd, 0xa8, 0x76, 0x03, 0xbe,
  0xb0, 0xcf, 0x16, 0xbd, 0x2b, 0xfc, 0xcd, 0x3d, 0x17, 0x26, 0x1d, 0xbd,
  0xa2, 0xd9, 0x21, 0x3d, 0xae, 0x70, 0x2a, 0xbe, 0xcb, 0xff, 0x0c, 0xbe,
  0x28, 0xfe, 0x04, 0x3e, 0xae, 0x7c, 0x15, 0xbd, 0xe4, 0x50, 0x79, 0xbd,
  0xd4, 0x66, 0x33, 0x3d, 0x89, 0x47, 0x2a, 0xbe, 0x2f, 0x66, 0x2c, 0xbe,
  0xa1, 0x35, 0x24, 0x3d, 0xec, 0x87, 0x08, 0xbe, 0xd3, 0x82, 0x00, 0xba,
  0xc0, 0xc3, 0xc2, 0xbd, 0x29, 0x30, 0x38, 0x3e, 0xe9, 0xc4, 0x14, 0xbe,
  0xa7, 0x40, 0xbc, 0xbd, 0x26, 0x4b, 0x08, 0xbe, 0x77, 0x68, 0x49, 0xbd,
  0xf2, 0x3e, 0xeb, 0xbd, 0xb4, 0x9d, 0xf9, 0x3d, 0x2f, 0xc4, 0xf4, 0xbd,
  0x47, 0xe4, 0x50, 0x3d, 0x4d, 0xb2, 0xbd, 0xbd, 0x31, 0x71, 0xdd, 0x3d,
  0x0e, 0x0d, 0xfe, 0xbd, 0x46, 0x9d, 0x10, 0xbe, 0xf5, 0x4d, 0x68, 0x3d,
  0x8b, 0x6f, 0x58, 0xbe, 0x92, 0x50, 0xfe, 0x3c, 0x0d, 0x3d, 0x44, 0xbe,
  0x59, 0x4a, 0x72, 0xbe, 0x7d, 0xbf, 0x5b, 0xbe, 0x2c, 0x79, 0xfb, 0xbd,
  0x12, 0xe4, 0x80, 0xbe, 0x75, 0x3c, 0xfc, 0x3d, 0x81, 0x4a, 0x35, 0xbd,
  0x3c, 0xd2, 0x6f, 0xbd, 0x45, 0xa3, 0x0f, 0x3e, 0xb2, 0xfb, 0xe0, 0xbd,
  0x9e, 0xec, 0xc5, 0x3d, 0x70, 0x9d, 0x4c, 0x3e, 0xa9, 0xe7, 0x33, 0xbc,
  0x84, 0xf9, 0x05, 0xbe, 0x18, 0xb0, 0x75, 0xbe, 0x50, 0xa1, 0x36, 0xbe,
  0xc0, 0x1f, 0x71, 0xbb, 0xab, 0x69, 0x49, 0xbe, 0xc0, 0x8f, 0x12, 0xbe,
  0x3f, 0xcb, 0x36, 0xbd, 0xbf, 0x10, 0x62, 0xbe, 0x9f, 0xae, 0xc6, 0xbd,
  0x61, 0xbf, 0x22, 0x3c, 0x07, 0x9d, 0x16, 0x3e, 0xff, 0x6a, 0x0c, 0x3e,
  0xa7, 0x67, 0x21, 0x3e, 0x8b, 0xa9, 0x05, 0xbe, 0x80, 0xd0, 0xc5, 0x3d,
  0x87, 0x6e, 0xe8, 0xbd, 0xdb, 0x7a, 0x41, 0xbe, 0x83, 0xd6, 0x06, 0x3c,
  0x5e, 0x3f, 0xb1, 0x3c, 0xc0, 0x12, 0xf4, 0xbc, 0x58, 0x3f, 0x63, 0xbe,
  0xc9, 0xdf, 0x47, 0xbe, 0x19, 0x01, 0x25, 0xbe, 0x8a, 0xab, 0x20, 0x3e,
  0xc4, 0x94, 0xd7, 0xbd, 0xb7, 0x91, 0x2f, 0xbe, 0xe1, 0xa6, 0x00, 0xbd,
  0xc4, 0xaa, 0x0f, 0xbd, 0x9a, 0x05, 0x97, 0x3d, 0xa8, 0xc8, 0x32, 0xbd,
  0x92, 0x16, 0x3f, 0xbe, 0x4d, 0x1e, 0x28, 0x3e, 0xbb, 0xd8, 0xbc, 0x3d,
  0x8d, 0x94, 0x1d, 0x3d, 0x8e, 0x5e, 0x00, 0x3e, 0x5a, 0x8c, 0x8f, 0xbd,
  0xf3, 0x4e, 0xa2, 0xbc, 0x9e, 0x30, 0x0b, 0xbd, 0xe0, 0xd9, 0xbb, 0xbc,
  0xc0, 0x11, 0xa0, 0x3d, 0x2f, 0x6b, 0x2a, 0x3e, 0x5f, 0xf2, 0xe6, 0x3d,
  0x31, 0x85, 0x81, 0x3e, 0xf9, 0x60, 0x30, 0x3e, 0xa0, 0x42, 0x64, 0x3c,
  0x84, 0x7d, 0xc6, 0xbd, 0x47, 0x98, 0xbf, 0xbc, 0xfd, 0x24, 0x1a, 0x3e,
  0xbf, 0xb0, 0xfc, 0x3d, 0x7f, 0xd1, 0xd2, 0xbd, 0xba, 0x96, 0x04, 0xbe,
  0x27, 0xe7, 0x21, 0x3e, 0x53, 0x5f, 0x45, 0xbe, 0x88, 0x88, 0x72, 0x3d,
  0x8c, 0x30, 0x86, 0xbc, 0xe3, 0x69, 0x4f, 0x3d, 0xdb, 0x4e, 0x1a, 0xbe,
  0x4b, 0x6c, 0x4c, 0xbe, 0x0b, 0xa9, 0xe6, 0x3d, 0x3c, 0x74, 0x54, 0x3e,
  0xeb, 0x25, 0x46, 0x3e, 0x40, 0x64, 0x62, 0xbc, 0xfc, 0xab, 0x28, 0xbe,
  0x95, 0xba, 0xfd, 0xbc, 0xd5, 0x99, 0x0d, 0xbe, 0x9f, 0x6f, 0x61, 0x3e,
  0xaa, 0xb0, 0x0a, 0x3e, 0x20, 0x35, 0xe5, 0x3b, 0x63, 0x1a, 0x39, 0x3d,
  0x35, 0xdc, 0x1b, 0xbd, 0x4d, 0xed, 0x37, 0x3e, 0x59, 0x8c, 0x03, 0xbd,
  0xfd, 0x6f, 0xa9, 0x3c, 0x5d, 0x19, 0xfb, 0xbc, 0xde, 0x50, 0x25, 0x3e,
  0x80, 0xf1, 0x57, 0x3d, 0xf4, 0x85, 0x41, 0x3d, 0xed, 0xd2, 0x6c, 0x3e,
  0xd0, 0x8e, 0x7f, 0xbc, 0xc7, 0x23, 0x01, 0x3c, 0x7a, 0x82, 0x0d, 0xbd,
  0x19, 0xbc, 0xe7, 0xbd, 0xe7, 0xd8, 0x91, 0xbd, 0x44, 0x99, 0x0a, 0xbe,
  0xf2, 0x0a, 0x9b, 0x3d, 0xdc, 0x37, 0xc0, 0x3d, 0x53, 0x2b, 0x19, 0x3d,
  0x73, 0x82, 0x25, 0x3d, 0xf0, 0x30, 0xbd, 0xbd, 0x97, 0x15, 0x0d, 0xbe,
  0x0a, 0x04, 0xc0, 0xbd, 0x11, 0x9d, 0x5f, 0xbd, 0xc8, 0x7e, 0xba, 0xbc,
  0x21, 0xc6, 0xa3, 0xbc, 0x06, 0xf1, 0x57, 0x3e, 0x9d, 0x85, 0x7e, 0x3d,
  0xc6, 0xe6, 0x33, 0xbe, 0x4b, 0xe9, 0x6f, 0x3e, 0x62, 0xff, 0x34, 0x3c,
  0x0c, 0x31, 0x92, 0xbd, 0x06, 0xf4, 0x68, 0x3e, 0x2c, 0xa0, 0xdb, 0xbd,
  0x9b, 0xd8, 0x16, 0xbe, 0x8c, 0x5a, 0x71, 0xbb, 0x94, 0xfa, 0xdb, 0x3c,
  0x96, 0x0c, 0x56, 0x3c, 0x39, 0x52, 0x1d, 0xbe, 0xdf, 0xbc, 0x29, 0x3e,
  0xa8, 0x8a, 0xbe, 0x3c, 0x20, 0xe2, 0xc2, 0x3d, 0xab, 0x4f, 0x9d, 0xbd,
  0xb2, 0x34, 0xcf, 0x3c, 0x0c, 0x71, 0x2e, 0x3e, 0xbe, 0x62, 0xa6, 0x3d,
  0xe8, 0xa5, 0xbf, 0xbd, 0xf8, 0xc2, 0x3c, 0xbd, 0x96, 0xc6, 0xcc, 0x3d,
  0x30, 0xec, 0xdb, 0xbd, 0x48, 0xda, 0x01, 0x3e, 0x20, 0x40, 0xfc, 0x3d,
  0x2b, 0xdf, 0xe4, 0x3d, 0x88, 0x27, 0xc1, 0x3d, 0xcf, 0x77, 0xba, 0x3b,
  0x07, 0x5f, 0x02, 0xbe, 0x5c, 0xb8, 0x47, 0xbd, 0xe6, 0x6a, 0x3f, 0x3e,
  0x71, 0x79, 0xa5, 0xbc, 0xbe, 0xdc, 0x86, 0x3e, 0x29, 0x3b, 0x8d, 0xbb,
  0x33, 0xbb, 0xa7, 0xbd, 0x5a, 0x2a, 0xd3, 0xbd, 0x23, 0x5b, 0xec, 0xbd,
  0xe7, 0x49, 0x18, 0x3e, 0x4b, 0xeb, 0xab, 0x3d, 0x33, 0xce, 0x42, 0x3e,
  0xb6, 0xe8, 0x3e, 0xbd, 0x6d, 0x16, 0x0b, 0x3c, 0x26, 0x2b, 0xdc, 0x3c,
  0x7b, 0x3c, 0xc1, 0x3d, 0xd4, 0xab, 0x52, 0xbb, 0xd6, 0xa4, 0xc1, 0x3d,
  0xcd, 0xa8, 0x2d, 0xbc, 0x9b, 0xeb, 0x7c, 0x3e, 0xe8, 0x05, 0x22, 0xbe,
  0x15, 0xdd, 0x28, 0x3c, 0xa9, 0x2a, 0x0a, 0xbe, 0xc2, 0x3e, 0x08, 0x3e,
  0x40, 0x48, 0x7d, 0x3b, 0xad, 0xf4, 0x88, 0xbd, 0xa0, 0x81, 0x65, 0x3e,
  0x66, 0xfd, 0xff, 0xff, 0x10, 0x00, 0x00, 0x00, 0x07, 0x00, 0x00, 0x00,
  0x14, 0x00, 0x00, 0x00, 0x2c, 0x00, 0x00, 0x00, 0x02, 0x00, 0x00, 0x00,
  0x10, 0x00, 0x00, 0x00, 0x70, 0x00, 0x00, 0x00, 0x17, 0x00, 0x00, 0x00,
  0x73, 0x65, 0x71, 0x75, 0x65, 0x6e, 0x74, 0x69, 0x61, 0x6c, 0x2f, 0x64,
  0x65, 0x6e, 0x73, 0x65, 0x2f, 0x4d, 0x61, 0x74, 0x4d, 0x75, 0x6c, 0x00,
  0xd0, 0xfc, 0xff, 0xff, 0xda, 0xfd, 0xff, 0xff, 0x04, 0x00, 0x00, 0x00,
  0x08, 0x00, 0x00, 0x00, 0xff, 0xff, 0xff, 0xff, 0x70, 0x00, 0x00, 0x00,
  0x00, 0x00, 0x0e, 0x00, 0x18, 0x00, 0x08, 0x00, 0x07, 0x00, 0x0c, 0x00,
  0x10, 0x00, 0x14, 0x00, 0x0e, 0x00, 0x00, 0x00, 0x00, 0x00, 0x00, 0x02,
  0x10, 0x00, 0x00, 0x00, 0x06, 0x00, 0x00, 0x00, 0x10, 0x00, 0x00, 0x00,
  0x2c, 0x00, 0x00, 0x00, 0x01, 0x00, 0x00, 0x00, 0x02, 0x00, 0x00, 0x00,
  0x18, 0x00, 0x00, 0x00, 0x73, 0x65, 0x71, 0x75, 0x65, 0x6e, 0x74, 0x69,
  0x61, 0x6c, 0x2f, 0x66, 0x6c, 0x61, 0x74, 0x74, 0x65, 0x6e, 0x2f, 0x43,
  0x6f, 0x6e, 0x73, 0x74, 0x00, 0x00, 0x00, 0x00, 0x38, 0xfd, 0xff, 0xff,
  0x42, 0xfe, 0xff, 0xff, 0x04, 0x00, 0x00, 0x00, 0x0c, 0x00, 0x00, 0x00,
  0x7d, 0x03, 0x0f, 0xbf, 0x87, 0x16, 0xe3, 0xbe, 0x0b, 0xb0, 0x0a, 0x3f,
  0x26, 0xfe, 0xff, 0xff, 0x10, 0x00, 0x00, 0x00, 0x05, 0x00, 0x00, 0x00,
  0x10, 0x00, 0x00, 0x00, 0x44, 0x00, 0x00, 0x00, 0x01, 0x00, 0x00, 0x00,
  0x03, 0x00, 0x00, 0x00, 0x32, 0x00, 0x00, 0x00, 0x73, 0x65, 0x71, 0x75,
  0x65, 0x6e, 0x74, 0x69, 0x61, 0x6c, 0x2f, 0x64, 0x65, 0x6e, 0x73, 0x65,
  0x5f, 0x31, 0x2f, 0x42, 0x69, 0x61, 0x73, 0x41, 0x64, 0x64, 0x2f, 0x52,
  0x65, 0x61, 0x64, 0x56, 0x61, 0x72, 0x69, 0x61, 0x62, 0x6c, 0x65, 0x4f,
  0x70, 0x2f, 0x72, 0x65, 0x73, 0x6f, 0x75, 0x72, 0x63, 0x65, 0x00, 0x00,
  0xa8, 0xfd, 0xff, 0xff, 0xb2, 0xfe, 0xff, 0xff, 0x04, 0x00, 0x00, 0x00,
  0x40, 0x00, 0x00, 0x00, 0x2d, 0x4d, 0x57, 0x3c, 0x89, 0xb9, 0xc4, 0xbb,
  0x48, 0xac, 0x35, 0x3c, 0x4a, 0xe4, 0x17, 0xbd, 0xb8, 0x1a, 0x0a, 0xbd,
  0xc8, 0x17, 0x75, 0xbd, 0x82, 0xb6, 0x36, 0xbd, 0x88, 0xf9, 0x38, 0xbd,
  0x68, 0x01, 0x50, 0xbd, 0xab, 0xf7, 0x45, 0x3d, 0x1b, 0x70, 0x20, 0x3d,
  0x8a, 0xcb, 0xc9, 0xbc, 0x0c, 0x90, 0x16, 0xbc, 0x61, 0x1f, 0x34, 0x3d,
  0x5d, 0x1a, 0x38, 0xbd, 0xf7, 0xb7, 0x42, 0x3d, 0xca, 0xfe, 0xff, 0xff,
  0x10, 0x00, 0x00, 0x00, 0x04, 0x00, 0x00, 0x00, 0x10, 0x00, 0x00, 0x00,
  0x44, 0x00, 0x00, 0x00, 0x01, 0x00, 0x00, 0x00, 0x10, 0x00, 0x00, 0x00,
  0x30, 0x00, 0x00, 0x00, 0x73, 0x65, 0x71, 0x75, 0x65, 0x6e, 0x74, 0x69,
  0x61, 0x6c, 0x2f, 0x64, 0x65, 0x6e, 0x73, 0x65, 0x2f, 0x42, 0x69, 0x61,
  0x73, 0x41, 0x64, 0x64, 0x2f, 0x52, 0x65, 0x61, 0x64, 0x56, 0x61, 0x72,
  0x69, 0x61, 0x62, 0x6c, 0x65, 0x4f, 0x70, 0x2f, 0x72, 0x65, 0x73, 0x6f,
  0x75, 0x72, 0x63, 0x65, 0x00, 0x00, 0x00, 0x00, 0x4c, 0xfe, 0xff, 0xff,
  0x56, 0xff, 0xff, 0xff, 0x04, 0x00, 0x00, 0x00, 0x40, 0x00, 0x00, 0x00,
  0xc8, 0xdb, 0x02, 0x3e, 0xd9, 0x57, 0x4e, 0xbc, 0xe1, 0x6f, 0xe7, 0x3d,
  0x5b, 0x5e, 0x4a, 0xbd, 0x95, 0xe9, 0x34, 0x3d, 0xdd, 0xdc, 0xb2, 0xbc,
  0x65, 0x6c, 0x36, 0xbd, 0xf4, 0x1c, 0x6f, 0x3d, 0xf0, 0x96, 0xc2, 0xbd,
  0x28, 0xc8, 0x63, 0x3c, 0x33, 0xee, 0x45, 0x3c, 0x06, 0x27, 0xc6, 0x3d,
  0x59, 0x9c, 0x26, 0x3d, 0xf1, 0x58, 0xa7, 0xbb, 0x3c, 0x69, 0x5b, 0xbb,
  0x7e, 0x30, 0x1f, 0x3e, 0x6e, 0xff, 0xff, 0xff, 0x10, 0x00, 0x00, 0x00,
  0x03, 0x00, 0x00, 0x00, 0x10, 0x00, 0x00, 0x00, 0x48, 0x00, 0x00, 0x00,
  0x01, 0x00, 0x00, 0x00, 0x10, 0x00, 0x00, 0x00, 0x33, 0x00, 0x00, 0x00,
  0x73, 0x65, 0x71, 0x75, 0x65, 0x6e, 0x74, 0x69, 0x61, 0x6c, 0x2f, 0x63,
  0x6f, 0x6e, 0x76, 0x32, 0x64, 0x5f, 0x31, 0x2f, 0x42, 0x69, 0x61, 0x73,
  0x41, 0x64, 0x64, 0x2f, 0x52, 0x65, 0x61, 0x64, 0x56, 0x61, 0x72, 0x69,
  0x61, 0x62, 0x6c, 0x65, 0x4f, 0x70, 0x2f, 0x72, 0x65, 0x73, 0x6f, 0x75,
  0x72, 0x63, 0x65, 0x00, 0x04, 0x00, 0x06, 0x00, 0x04, 0x00, 0x00, 0x00,
  0x00, 0x00, 0x06, 0x00, 0x08, 0x00, 0x04, 0x00, 0x06, 0x00, 0x00, 0x00,
  0x04, 0x00, 0x00, 0x00, 0x20, 0x00, 0x00, 0x00, 0x54, 0xf9, 0x0d, 0xbd,
  0x69, 0x24, 0x9e, 0xbc, 0x9d, 0x0f, 0x53, 0xbc, 0x51, 0x1c, 0xb3, 0xbb,
  0x24, 0x1c, 0x8e, 0x3c, 0x09, 0x05, 0x8c, 0xba, 0x40, 0xc8, 0x87, 0x3c,
  0x3a, 0xd0, 0xe1, 0x3b, 0x00, 0x00, 0x0e, 0x00, 0x14, 0x00, 0x04, 0x00,
  0x00, 0x00, 0x08, 0x00, 0x0c, 0x00, 0x10, 0x00, 0x0e, 0x00, 0x00, 0x00,
  0x10, 0x00, 0x00, 0x00, 0x02, 0x00, 0x00, 0x00, 0x10, 0x00, 0x00, 0x00,
  0x44, 0x00, 0x00, 0x00, 0x01, 0x00, 0x00, 0x00, 0x08, 0x00, 0x00, 0x00,
  0x31, 0x00, 0x00, 0x00, 0x73, 0x65, 0x71, 0x75, 0x65, 0x6e, 0x74, 0x69,
  0x61, 0x6c, 0x2f, 0x63, 0x6f, 0x6e, 0x76, 0x32, 0x64, 0x2f, 0x42, 0x69,
  0x61, 0x73, 0x41, 0x64, 0x64, 0x2f, 0x52, 0x65, 0x61, 0x64, 0x56, 0x61,
  0x72, 0x69, 0x61, 0x62, 0x6c, 0x65, 0x4f, 0x70, 0x2f, 0x72, 0x65, 0x73,
  0x6f, 0x75, 0x72, 0x63, 0x65, 0x00, 0x00, 0x00, 0x90, 0xff, 0xff, 0xff,
  0x14, 0x00, 0x18, 0x00, 0x04, 0x00, 0x00, 0x00, 0x08, 0x00, 0x0c, 0x00,
  0x10, 0x00, 0x00, 0x00, 0x00, 0x00, 0x14, 0x00, 0x14, 0x00, 0x00, 0x00,
  0x14, 0x00, 0x00, 0x00, 0x01, 0x00, 0x00, 0x00, 0x20, 0x00, 0x00, 0x00,
  0x44, 0x00, 0x00, 0x00, 0x2c, 0x00, 0x00, 0x00, 0x04, 0x00, 0x00, 0x00,
  0x01, 0x00, 0x00, 0x00, 0x40, 0x00, 0x00, 0x00, 0x03, 0x00, 0x00, 0x00,
  0x01, 0x00, 0x00, 0x00, 0x0c, 0x00, 0x00, 0x00, 0x63, 0x6f, 0x6e, 0x76,
  0x32, 0x64, 0x5f, 0x69, 0x6e, 0x70, 0x75, 0x74, 0x00, 0x00, 0x00, 0x00,
  0x04, 0x00, 0x00, 0x00, 0xff, 0xff, 0xff, 0xff, 0x40, 0x00, 0x00, 0x00,
  0x03, 0x00, 0x00, 0x00, 0x01, 0x00, 0x00, 0x00, 0xfc, 0xff, 0xff, 0xff,
  0x04, 0x00, 0x04, 0x00, 0x04, 0x00, 0x00, 0x00
  // Paste the data of the char array in `src/model.cc` here

};


unsigned int model_tflite_len = 13052;// Fill the int in `src/model.cc` here

